/**
  ******************************************************************************
  * @file    network_data_params.c
  * @author  AST Embedded Analytics Research Platform
  * @date    Mon Jun  3 17:23:37 2024
  * @brief   AI Tool Automatic Code Generator for Embedded NN computing
  ******************************************************************************
  * Copyright (c) 2024 STMicroelectronics.
  * All rights reserved.
  *
  * This software is licensed under terms that can be found in the LICENSE file
  * in the root directory of this software component.
  * If no LICENSE file comes with this software, it is provided AS-IS.
  ******************************************************************************
  */

#include "network_data_params.h"


/**  Activations Section  ****************************************************/
ai_handle g_network_activations_table[1 + 2] = {
  AI_HANDLE_PTR(AI_MAGIC_MARKER),
  AI_HANDLE_PTR(NULL),
  AI_HANDLE_PTR(AI_MAGIC_MARKER),
};




/**  Weights Section  ********************************************************/
AI_ALIGNED(32)
const ai_u64 s_network_weights_array_u64[24333] = {
  0x3c0f7d0e3c5c1bb2U, 0x3c166943bc23fb3aU, 0x3b6c579d3c88a26eU, 0x3b7d63323b27ce0eU,
  0xbcb7f56cbcca0d96U, 0x3b783e95ba908bb8U, 0x3caeb66b3cc26485U, 0xbcca1edcba623c5bU,
  0x3ce91d6b3cef8e82U, 0x3c94ac2cbc6c21ceU, 0xbb6194aa3c9a41f8U, 0x3c97ae4b3c5b6083U,
  0xbca547af3caa2ec1U, 0xbcf8ad1bbb9d454eU, 0xbc6c8de5bcbf6df2U, 0xb9d44bb93c8962bfU,
  0x3c1648843c3aae6dU, 0x3cce9eccbad527beU, 0xbcefd7cabb758db1U, 0x3b822dd3bceb0283U,
  0xbbff0648bce08e7dU, 0x3c41fe6d3b2fd546U, 0xbcb3ed0a3b37b991U, 0x3cc739a4ba3c0e13U,
  0x3cef3fd13c931688U, 0xbc72e4303ca06d87U, 0x388f858f3c521adeU, 0x3b4fe0b63c55a47bU,
  0xbcc66d9c3c76e6e3U, 0xbc8bc2703cd08a9aU, 0xbcbd54fe3bfa51c9U, 0x3c79b00d3b02f4e9U,
  0x3bb9587d3c52f2deU, 0x3c293fbfbb5c5f71U, 0x3bc2fc12bcfac9cbU, 0xbcb8ed483baeb938U,
  0xbb5c89b4bcfbac84U, 0xbcccbb38bbadf1deU, 0xbc3a7af4bc871f1dU, 0x3c05a7a73cf8f67aU,
  0x3b16ca70bc978176U, 0xbb8d4dc7bcc644a4U, 0xbc210d92bcc01f3eU, 0x3beab1183c5314b1U,
  0xbca561dcbbe1d669U, 0x3cc9919abc562bb9U, 0xbb76021f3c3eae8fU, 0x3c441ae13cbfb61bU,
  0xbc9a206d3b91be4fU, 0xbc2ac14a3c5da53aU, 0x3ccda549bc641eefU, 0x3c2bf54f3c9475e0U,
  0x3cbfbad53c01bd97U, 0x3c4f6c16bcaf3c27U, 0xbc86f67f3c46a64fU, 0xbbf6b51c3c52e86fU,
  0x3c7587573cd8c552U, 0x3c83c0a13ce1f961U, 0x3d0ac517bc9c41e0U, 0x3cad1270bc4138b4U,
  0x3bacd2573ceafbb7U, 0xbc3576d53bf507bfU, 0x3ce8956f3c2bd732U, 0x3c57a8bdbc278ac2U,
  0x3caa8a7e3c9cd321U, 0x3d11ced0bca48923U, 0xbc7bc15b3c9e5bacU, 0xbc6b48703b7ca50fU,
  0x3cf63b42bbe2c5f8U, 0x3bae16573c6a196aU, 0xbc25bf833b499fcdU, 0x3cada094bca04a52U,
  0x3ce1805f3ce7fee7U, 0xbc1cf0d2bbb4cdeaU, 0x3cee0da6ba04829dU, 0xbce15d6ebc006664U,
  0xbcd103edbcaa22e9U, 0x3c07df03bc33d71cU, 0x3c40c467bc059e45U, 0x3c9809543c57a514U,
  0x3ca31ee8bca4c893U, 0x3cd627633cc33f32U, 0xbbce24f23c164607U, 0x3cb4569cbcc2ff32U,
  0x3aac98b73cd29576U, 0x3ba8246cbc086b67U, 0x3d097bb73cc6a358U, 0xbc6b196cbc4ae75fU,
  0x3af2ff9ebc3af285U, 0xbcbca64d3b48560aU, 0x3c230c203ce2c261U, 0xbc56f4c73cce0089U,
  0x3b674733bc650f9cU, 0x3c65a2d23ca546e2U, 0xbca47e123cc309fbU, 0x3b862b4ebc5e43f1U,
  0xbc3d62dbbcbdaaecU, 0x3cdff4163cd57733U, 0xbca383b23cf0fd47U, 0xbbd39f21bc92f63eU,
  0x3c9ae9c43a826cfcU, 0xbca9da43bc3d2222U, 0xbc52e7e83c9843b3U, 0x3d0c92623c475a76U,
  0xbb5c54c7bb143221U, 0x3a6957dd3cfa7cbcU, 0xbbd5d1ed3cc4e702U, 0xbca8d812b864ecbaU,
  0xbc2b0bf33cfd6970U, 0xbc720bbebb7064ceU, 0xbcc00bb73cd7018dU, 0x3bb5d626bca361f1U,
  0x3c2549023b8e63c6U, 0xbc9b39143d058392U, 0xbc0f6c0f3ce61e04U, 0x3c59788fbc873254U,
  0x3cf92bf7bca86239U, 0xbb27c47ebc958dd3U, 0xb9d16260bc2928ebU, 0x3c4dfb1abbdcb9dfU,
  0x3cb45ece3cf6e080U, 0x3cd4142f3cd3476cU, 0xbcea0eae3cf1dbecU, 0x3cc5b01fbbca4ac6U,
  0xbc1c0d423ccb9814U, 0x3b860d8fbcb6db59U, 0xba3b85c03c94c5bcU, 0xbb769fb0bbe1f000U,
  0xbcecf6953cadfb5dU, 0x3cb3c461bbee8b43U, 0xbcddc4d3bb1f5412U, 0xbbacb41b3c4e5ae9U,
  0xbc01808ebaf80266U, 0x3c02cb6abcf36572U, 0xbc22bf6e3c06a02bU, 0xbc9236f3bcd8f088U,
  0xbc34664ebb270de1U, 0x3be5e6c03ca8a437U, 0x3b7043053ca4cac8U, 0xbbbf21063b2a0cf5U,
  0x3cc7c38cbcdbff60U, 0xbccca4e13b6faf21U, 0x3a973abdbc2a6469U, 0xbcac26113c44928aU,
  0xbcc1d4a33ce4a07eU, 0xbb474bc0bb95e65aU, 0xbc13d1c6bc9c683aU, 0x3c01605e3c9233b5U,
  0x3c45477fbce3ddc0U, 0xbbbc77bdbcc7ee6bU, 0x3abfdc53bcf92a90U, 0x3c5026913c5ef01cU,
  0x3c62cbdc3ccd22e0U, 0xbceca9c3bc9a058dU, 0x3cf77ac53cbcdb5dU, 0xbcbb83833b35d0b5U,
  0xbcf5c8c73ab47d45U, 0x3cb14de53cac43f9U, 0xbc32a583bc2e38c5U, 0xbb74beec3ca8a96aU,
  0xbce5dbd5b9f3e075U, 0xbd0156c43ca970b4U, 0x3bef36ca3cf45b12U, 0xbc9b5992365cc7a9U,
  0x3c99d8e23c59a402U, 0x3c7c589cbc3733acU, 0x3c816a263d153f86U, 0x3c96606f3b37c6eeU,
  0xbb77549bbb00d654U, 0x3d3012853c78da79U, 0xbc0911193cb313a3U, 0x3c81f80f3d1d42fcU,
  0x3c68e815bbffee83U, 0xbc2b0f61bc2bc429U, 0xbba0e9cc3d19bd49U, 0x3ccafac4bb65464aU,
  0x3c6f7cb3bc912a54U, 0x3ab648b1bbe1f98aU, 0x3cd4855e3d21aac5U, 0x3c15adb0b9d32d39U,
  0x3d1cb1393bec92c5U, 0x3ca8e39c3d0a79feU, 0x3cb57937bc640bedU, 0x3b7b80613a5e7ddbU,
  0x3ca1665fbc84e4edU, 0x3d15fd973cb027aeU, 0xbc09c7e3bc46210bU, 0xbbc7fcdb3d2015eeU,
  0x3d3312f73d204610U, 0xbc0a0b603c3a7115U, 0x3cbffff7ba9f2c59U, 0x3d3a04193bac4780U,
  0x3c69069f3cdfb502U, 0x3d0e41dc3c18bb1aU, 0x3d495fcbb9cf1312U, 0x3cbfe02f3cea3645U,
  0x3c8c47df3c80699fU, 0x3d208ae4bc13c3c6U, 0x393187693bf043d8U, 0x3c1bb5c43cf23b95U,
  0x3cbb6dfc3ca403a7U, 0x3c62bffd3cccac95U, 0x3d09c36e3d305c15U, 0x3cea8a0e3aeb7040U,
  0x3cb2c65abb85ded2U, 0x3bd8bc3d3c154e9aU, 0x3d32e2733d39f732U, 0xbc287e2a3d47a755U,
  0x3ab0e43aba6ebe95U, 0x3d509e933d0d86feU, 0xb95cdcfe3c6e6a52U, 0xbb19181f3d297d81U,
  0x3d0b3678bc854f7aU, 0x3aa8984cbc6b0be2U, 0xbc835eb13c4cff87U, 0x3ca81e593b8c13a7U,
  0x3cc10b063d024f0fU, 0x3d2aa9b93b20b487U, 0x3d11fe6fb939c733U, 0x3d3280d13cb2f4f7U,
  0x3cd347563d1a796eU, 0x3b474c773cc19d79U, 0xbb4cb7cb3c534cfaU, 0x3c6f173a3c08758dU,
  0x3caff8d63cdd4c0aU, 0x3c2ba7da3c8b1c7bU, 0xbc34f3393d2635acU, 0x3d19e31ebba351f5U,
  0xbc1d76b7bbf15f78U, 0x3c043605bc503cfaU, 0x3ca9f38c3d0ff244U, 0xbc0c810dbc49a3fbU,
  0x3d14a5c1bb8efff0U, 0x3d0117913b4cd763U, 0x3be80cf33d1f4375U, 0xbbb282a03d38386cU,
  0x3d2d99573d0630a7U, 0x3c401e3f3d0c3826U, 0x3c942e1cb9fcf68fU, 0x3d10bfdc3d0bd7a0U,
  0xbaac64113a7ace41U, 0x3d1430623c9a0e19U, 0x3d33adc63d170967U, 0xba010f9c3c57e43aU,
  0x3a7201043d167c93U, 0x3cc8aec73c06789dU, 0x3c6f60813825d13aU, 0x3d3df3503ca8f2dbU,
  0x3cd876d53be0ec04U, 0x3c7546cf3ce024a0U, 0x3b617eae3cd40b8fU, 0x3c0e40b53be6338fU,
  0xbc0f1dbf3a61c5a6U, 0x3d38293d3d35f3a0U, 0xb9d78f5d3cec3099U, 0xbbc8121a3d17bba6U,
  0x3cc38cfcbc77a735U, 0x3bd0d9963cbeb573U, 0x3c5ed6193ceec295U, 0x3c3edd0f3b951473U,
  0xbbfdef393b594541U, 0x3ce17e9b3a34908dU, 0x3ca92e9e3b437f0bU, 0x3c89f6693c92c3cbU,
  0x3d3b5d253bae47afU, 0xbb86f3a53d507fcbU, 0x3c8b69ce3d3c098dU, 0x3ccd0728ba9b7e08U,
  0xbb614f403c8c90e3U, 0x3d21851e3c891a78U, 0x3cd7ef823d3b404eU, 0x3bfb67513c8307b9U,
  0xbadffc563d0a399dU, 0x3cabaf573ba69143U, 0x3d392685bb243493U, 0x3cc82cc13cdb38aeU,
  0x3c622eb63d02233eU, 0x3d0964383d16f20bU, 0x3a536e0f3c9ef607U, 0x3cd18ee6bbf68238U,
  0xbbabdacf3c5b242aU, 0x3b1ee3e73d10379fU, 0xbc339de83cd9a4eaU, 0x3cd017173ba6b810U,
  0x3b75882c3d1ccacbU, 0x3c86e6863cf8631bU, 0x3ccee801ba6a1882U, 0xba7e850f3d314a45U,
  0x3cbbfd7d3cdb27d8U, 0x3c4bbdab3d066800U, 0x3c235aa2bb0d02d8U, 0xbbd587cbba43ea9dU,
  0x3c8c909d3d3fe1afU, 0x3c9c59973d2709bfU, 0x3c8ae6263d264bbbU, 0x3cbac7423c5be86bU,
  0x3ce3b73bb8aaf3cbU, 0xbc1d98273d3888e7U, 0x3d4754833d2e6d10U, 0xbb13913cbc43ef5eU,
  0x3cd52b533d1266acU, 0x3d41d40abb8ec1e1U, 0x3c538d5fbc02c13bU, 0xbbac7d153d14fa28U,
  0x3c3cda263cbc827dU, 0x3d0e0c313d1914bdU, 0x3cf017553cf82c50U, 0xba159ce939b3fe21U,
  0x3d14cf2dbc23668bU, 0xbc56e386bc18c84aU, 0x3cdab43b3c2798efU, 0x3cbbd352bc27d592U,
  0x3c9650a7bc645cb7U, 0xbc6af39d38d35b20U, 0x3d19f050bbf2366eU, 0xbc4669f83c472129U,
  0x3d00a8603c030898U, 0xbbb333163cd9f1cfU, 0xbc6bb5dd3d1bfeaeU, 0x3ce36259ba6da579U,
  0x3d13aaba3b64ee33U, 0x3d217fab3d201deaU, 0xbb50b0983d098d5bU, 0x3c5736943c241370U,
  0x3d0024b03c3f1a20U, 0xb924d2053d10c838U, 0x3d21bf393c12b1b8U, 0x3d24095f3d0126baU,
  0x3ce97cbdbc6b54c7U, 0xbac1fec13d139fb4U, 0x3d413e053bd93d3bU, 0x3d0607c5bb0a1462U,
  0x3ce82f173cfb9096U, 0x3c13b6703c8c9b82U, 0x3d2fe9943ca437d2U, 0xbc29ae283ce416dcU,
  0xbb8986dc3cb3de28U, 0x3d0fba623cd40636U, 0x3cce6c703cc21c29U, 0xbc1560653c09a76aU,
  0x3d1280463c4948a5U, 0x3d2742c03d4041a8U, 0x3cf8efb6b9c15649U, 0x3b2af2a53c289cfeU,
  0x3ccf38b4bc6fc56cU, 0x3d204a503d0b3fdbU, 0xbbc7b33f3bd2314eU, 0x3d1438af3d191efeU,
  0x3c0dde593c14fed0U, 0x3d3b134a3d1a5670U, 0x3ca7c1093cd35a2dU, 0x3c98ce993d235c71U,
  0xbb9330c43c9b9087U, 0x3d3ebbf63d2f6c13U, 0xbc4d1cf5bc6f008fU, 0x3d3cfce03d2d517fU,
  0x3bacb1013c005672U, 0xbba4b9f0bbbc5fa3U, 0x3d04098f3cae3545U, 0x3c15ffa9bc2e2b5fU,
  0xbbed75493bf98cb5U, 0x3c9dbd0d3c976958U, 0xbbd8f7633d072a51U, 0x3d2359ec3cedeb3fU,
  0xba5cb8483d04e1bbU, 0x3b80ff443be1d14fU, 0xbacfd0693d1410a4U, 0x3cbf13483cc86813U,
  0x3d244f3ebc2c1835U, 0x3c006c7cbc011666U, 0x3d11511a3c484085U, 0xbc04bf3cbbf61aebU,
  0x3c634841bbd79b4dU, 0x3d273493bb20e730U, 0x3c2b141b3bdb56d9U, 0x3d31d7d33cc2239fU,
  0x3ced35483c9a3735U, 0xba0cc546ba9cf3bcU, 0xbb0676be3d015b57U, 0xbc6291a9bc32d45eU,
  0x3c32e065bc5c4a76U, 0x3d1a905fbb82f7cbU, 0xba79d5fe3c38458dU, 0x3d170263bc82ce14U,
  0xbc34f0543cd04da3U, 0x3c030dfe3bd0a90cU, 0x3c9676d23cd9adbcU, 0x3d2cbdd33b13387cU,
  0x3bf636f63bd4e11cU, 0x3c9ad49cbc1f57e7U, 0x3ca8b01f3c5ba38eU, 0xbc47e5f93b9b87a7U,
  0xbc0b985e3c968bf8U, 0x3d20d67eba09fc92U, 0x3aad55ef3cb18f34U, 0x3cb40c463d2ddb41U,
  0x3d032fae3c85c148U, 0x3cadd98e3d24e526U, 0x3d1cfb7abc39d707U, 0x3c40551b3ad7c588U,
  0x3c7ea2553cb56492U, 0x3b5d2bd63cb76927U, 0x3d072ef13d23280fU, 0x3ce497083c54d9daU,
  0x3cffd553bc8c98aeU, 0xbbe0ca883cc7aa50U, 0x3cba96d63b4e3a3bU, 0x3c8288073c8c2062U,
  0x3cedf46c3aa6c4bcU, 0x3c6056d83b3b9c46U, 0xbc60d3863ca9fd6eU, 0x3d1adab73b8512ceU,
  0x3c7c7f353c6cf181U, 0x3ce880ee3c921b97U, 0x3c19d1df3c8a520fU, 0xbc2bae783cfaa70eU,
  0x3d0ae0663cf27858U, 0x3c9fc8323c99b7a8U, 0x3cb39cd0bbbd5aa4U, 0x3c940a3dba582048U,
  0x3d1dde323b99625bU, 0x3ccc8554bb9b1bdfU, 0xbaf8e547bc9bbcacU, 0x3d0a8f483ccd97f2U,
  0x3cd34fbbbc7e203eU, 0x3d2242c53ba39565U, 0x3cd940943c5d4318U, 0x3c892aa5bbfef423U,
  0xbc1f60513d15c931U, 0xbbcd81a23aeafb9eU, 0xbbdc79a03d00c5adU, 0x3c48c521bc9e9cb9U,
  0x395c9cfe3c4ff75fU, 0xbb2e7339bc057f81U, 0x3d06ba1a3d26acddU, 0x3c090a0d3c5228a6U,
  0x3c5a0f663d1f561eU, 0xbca365563d20ed1cU, 0x3b5547cd3d267288U, 0x3cacbc733d08eb87U,
  0xbbdac2c03c336846U, 0xba81032f3c13d6a7U, 0x3cdfa78fbc5e7281U, 0x3cab16bf3c79ab6aU,
  0xbbd6b7e03d087d6aU, 0xbbd404403c53516bU, 0x3c55265d3cfccb90U, 0xbca7aa6f3cc5a726U,
  0x3ce24de03c571b47U, 0xba1450dabbb1dd0bU, 0xbc3907c93bc51e22U, 0xbc1c35bcbc7654b2U,
  0x3b869a773d113bb2U, 0x3ae944e5bcac4044U, 0x3d1b1e97b8871043U, 0x3c9ac897bc9459f6U,
  0x3d27c9d23c73e360U, 0x3ca94d65bb329e60U, 0x3cbbd677bca4c08bU, 0xbc81447a3b292174U,
  0x3cfb85593be3bd34U, 0xbc90245b3b584189U, 0x3cc7dd543c81f546U, 0x3a3827a83c9f18feU,
  0x3d0a206fbc9cf53cU, 0x3d1d9d9e3bc68ff1U, 0xbc9616afbb862439U, 0x3cb5d000bc4aed86U,
  0x3c2431743d25eb0fU, 0x3cfbc0b0bc135ebbU, 0x3cfdb0a53b22bd4cU, 0xbc85996a3d0c2243U,
  0x3c2fca733ca548efU, 0x3bd62d1a3b840b7eU, 0x3c8597a2bba95ea2U, 0x3c79e4493beaf8cdU,
  0x3b886c3f3d08b782U, 0x3c8266d8bb804c26U, 0xbb420f11bc48b9a0U, 0xbbc37b9e3d271eceU,
  0x3d0758983d16d800U, 0x3cc4675bbc1075ebU, 0xbc3064febc6f81d0U, 0x3c9069c33d12e791U,
  0x3c623d37bc2b8085U, 0xb93146b83cc5fc2aU, 0x3cf573cf3c1f9c57U, 0x3bacbe3a3cf79d35U,
  0xbca75c87bc6e4a31U, 0x3cfc37f53c7ba9eeU, 0x3d2397823c88bd19U, 0x3c2026be3d03668aU,
  0x3c2dabaabc83083eU, 0xbc9ecad03d21b663U, 0x3c885f1d3ca31000U, 0x3ca46b46bc51a7f3U,
  0x3ca65c8cbbfd17e8U, 0xbc6c7e01bc6e7309U, 0xbc119702bba069f5U, 0xbb5e91b33bf29ff6U,
  0x3aafde193c1e762bU, 0x3cd523903bd8da40U, 0xbc4486e13a021274U, 0x3d009fa63d096853U,
  0xbc33322e3c8cda4cU, 0x3c1fb87e3d1b8fc5U, 0x3c9e89abbc5d7edfU, 0x3c95a3e7bbbf764dU,
  0x3d12985a3be16ab3U, 0x3d01df973d061102U, 0x3ce730c5ba75a3deU, 0x3d0f8719b98e52c0U,
  0xbca942493d1b7edaU, 0xba7afbb83c4f0c22U, 0xbc0892913b3bca5aU, 0xbc3d9e483c5ee5e4U,
  0x3c0f31b63c5f5b89U, 0x3ce90086bb7e351cU, 0xbbfcc782bc6a3f8aU, 0x3cf13a093cc6b753U,
  0x3bcccbb33c0bf44aU, 0x3c39094a3b41309dU, 0x3cdfb87d3cdb03c0U, 0xbc5e798c3aaa7e09U,
  0xbbf518b13c740501U, 0xbb31cfe43cf18b1bU, 0x3c7915103c026fbcU, 0x3ba227503bd51012U,
  0x3d1815cd3d0821c4U, 0x3d1ab7ea3ad16a04U, 0xbc1bb5a03c7b385aU, 0x3ba4719739490c03U,
  0xbc7be694bb9ae41fU, 0xbc637bc8bc75ea4aU, 0x3d1e3d8c3c7e1820U, 0xbc93ce2a38d1d38eU,
  0x3d1c2fad3d0c8752U, 0x3d0f79db3d2529f6U, 0xbc89536b3ce5226bU, 0x3c00df96bbe6d3c7U,
  0x3cf4381f3b32e048U, 0xbc7c611f3d2ada0aU, 0x3b8c1b233c9b8817U, 0xbc26588e3cb489fbU,
  0x3bcf4c373adb2219U, 0x3c26be3b3cf34ae0U, 0xbba04c9f3d17bc57U, 0x3bcfeef13d25b9d6U,
  0xbc9340fe3ce734a5U, 0x3ce06b63bc0db74eU, 0xb9109bd63be66ba6U, 0xbbfb18013c5989f7U,
  0x3bde76453cbeef4aU, 0xbc897b6fbaedfa9cU, 0xbc2d2e01bc37a50cU, 0x3d2dbeb5bc2424ebU,
  0x3cc72aeabbe591bfU, 0xba9fce273befaf7fU, 0x3d0abafd3bc2923cU, 0x3b61d1a63cb81979U,
  0xbc94670d3cfdd8ccU, 0x3bbbcd793d10e715U, 0x3d0848e23d21a38dU, 0xbc09cf733d2bae04U,
  0x3ba486753cfd46b7U, 0x3d2be0033d159aa1U, 0x3cca0a1abbaef1c2U, 0x3a30b13b3cb883fcU,
  0x3ca364f9bb74d9a3U, 0xb9cb66183c1cc353U, 0x3c86460b3c0ad1ecU, 0xbc4641f7bbff0946U,
  0xbc30ad4e3be63747U, 0x3c8abf313b7f3990U, 0x3c9b52703ca6f34bU, 0xbb28b36f3b51485dU,
  0x3d17d6863d02a495U, 0x3cd76da03cac1a94U, 0x3b54365b3d0cbf64U, 0x3d20e51d3bdf22cdU,
  0x3d1a727a3cd12c51U, 0xbbc1d8013a19fac4U, 0xbba2da763be7d81fU, 0x3c749ad83d306334U,
  0x3bb7a40f3d04fdb0U, 0x3ccbcb43bc08e1ccU, 0x3ca457613c814a2dU, 0xbc3eddb53d0409a9U,
  0x3d343fca3d2da82bU, 0x3c7c46453d1585d6U, 0x3cbfb340bbe4ac7bU, 0x3d1f40803c3494f3U,
  0x3d34f9723bd5dd4fU, 0x3cd044133d23a6ceU, 0x3c843f64bbd78bc9U, 0x3c1824fe3b2b746bU,
  0xbc569b3d3cd50378U, 0xbc4205a83d237eafU, 0x3c6132b83d1dbbd0U, 0x3c2aaa933d38b261U,
  0x3c779966bb457092U, 0xbb51c4a73cea6b82U, 0x3d1a50213d027f2dU, 0x3c413fa63d390a56U,
  0x3ca3d89e3c5da222U, 0x3c5168823b80fb10U, 0x3c39855b3c02fe31U, 0x3d11d0163cd89550U,
  0x39ba1e9b3d306d49U, 0x3bf12e3a3c699994U, 0x3d0febcb3d2f8eebU, 0xbc595590bb74f5ebU,
  0xbc45c7703c56e11cU, 0x3d1f45fa3d0c9e4fU, 0x3d15c8e33c4c0321U, 0xbb064075bc474c60U,
  0x3cf05cef3c8dd88fU, 0xbc5719e53b661930U, 0x3cacf4fc3d221fc8U, 0x3c4a197ebc02b129U,
  0x3c98eb713d2104f0U, 0x3d14cf4a3b755513U, 0xbc77f6503bd15651U, 0xbc71a9b03bc10067U,
  0x3c6e89263c14f625U, 0x3acfa2debbaf196fU, 0x3c24215c3ca9669dU, 0x3c5b258d3d252241U,
  0x3d1775e9bc904629U, 0x3c0131993b5f8caeU, 0x3becbe8ebb277ef0U, 0x3ca688d6bc804ceaU,
  0x3c4b1c853bd703f3U, 0xbba9834b3d0bcf19U, 0x3c9dd7393ce5da51U, 0x3b8ad3523c391cb7U,
  0x3cf17c033d10aae4U, 0xbc8c815c3cc09685U, 0x3d036f523d0533bfU, 0x3c8bb4a83cab0162U,
  0xbc4c922d3c2d9ad7U, 0x3d1d9a05bbd6a32fU, 0x3c64a3da3d236af2U, 0xbc4f12dc3c7fd545U,
  0x3cba0a9a3c6745b5U, 0xbc4d3dfa3bf0ad02U, 0x3b0895bbbb0bdacfU, 0x3cf0407f3d01c475U,
  0x39a9226b3c9ba1fbU, 0xbbb73950bb5d0931U, 0xbb1767623cba3315U, 0x3c0bb717ba12218bU,
  0xbba7c5f53d20aa83U, 0x3d2c23f9bc62f8f1U, 0x3babbee43bb1fb2aU, 0x3d0aba4d3cd7e488U,
  0xbc1efb8c3c345657U, 0x3d18a5a5bc97200aU, 0x3d1d8be63d1d3ee3U, 0xbc4466e33c973e1bU,
  0x3bd20a4abc801585U, 0xbc0fa5573c2ab282U, 0x3cc24076bc507b7bU, 0x3d1dab983c24320fU,
  0xba264216bbe906c2U, 0xbc5259943abc009dU, 0xbc3fed1d3d24d3c3U, 0x3c1ebee43c1f6228U,
  0x3d2709cc3cc27b02U, 0x3cb103653cf3a39aU, 0x3d045eb73d18758cU, 0x3ce42f5d3b4cee5bU,
  0x3d2c1892bc7725c0U, 0x3ce2f9d93d0528f3U, 0x3d07c82f3c787cf2U, 0xbb9912fc3cdfc9b8U,
  0xbb35c7603cb4fa0cU, 0x3cb0b473baffe363U, 0x3cc9cade3d041a5dU, 0xbb7beca03cacb77cU,
  0xbc5ceca93c344149U, 0x3c802f713c458936U, 0x3cc840a63ce24a44U, 0xbbc5e25839643ee3U,
  0x3acae939b918bb37U, 0x3bee407a3bea3e00U, 0x3d27d1263d1990cfU, 0xbbf083943c92216aU,
  0x3cbb0c833b92e018U, 0xbc8675433b3ae647U, 0x3d114ff4bc34b3aaU, 0xbbfc1c85bc2dc4f2U,
  0x3d1f079bbc90e282U, 0xbc83dcff3d1e7a8cU, 0x3d1d0c92bc6cfef3U, 0xbc7e92333ccc4683U,
  0xbc99a2373cfcd2cbU, 0xbc967fd3bc9bd643U, 0x3a8261c83c739716U, 0x3d0e6cadbc824774U,
  0xbca7813b3c3e9cafU, 0x3c0af8ac3ca1946aU, 0x3d1f95bc3cbcead6U, 0xbc3077dbbc2a5291U,
  0xbc0947203ca93c05U, 0xbb7c8bbc3ccfe1ecU, 0xbc7f0cfc3cd1082dU, 0x3c9361b63d16ddbfU,
  0x3c25df4fbac1e0aeU, 0xbbaad7e0bc3c12d9U, 0x3d1fcbe83bc3b3bbU, 0xbbc7d9c83c172a39U,
  0x3c9b89e73995f658U, 0xbc9d5e3a3c0c0bb4U, 0xbb789f85bc3338d4U, 0xbc4421cc39deba09U,
  0xbc953825bc5fc973U, 0x3d19f7f2bc7d090cU, 0x3b650e6dbbe92395U, 0x3a312c54bbe3f2b9U,
  0x3bccb4efba65f2a9U, 0x3c29e087bc3fc481U, 0xbc74c90fbc89a5d3U, 0xbc79fe28ba7036c5U,
  0x3d005c6b3d030642U, 0x3cd1092e3b5d0c9bU, 0x3d2929cfbc8dc4a2U, 0xbc5a0051b97ac69fU,
  0x3c6b38ec3b6e3b94U, 0x3bc3ab9b3c8fab04U, 0x3cf84fbb3acf44dfU, 0x3c29e1643cb91a5fU,
  0x3cc060dd3b024d34U, 0x3cbf2d61bc7a4cdaU, 0xbb0315553cfc8b96U, 0x3cfb68603d04dfcfU,
  0x3c68e45f3ce48437U, 0xbc5a74e7bc3cf638U, 0x3d2548c53d1de7bbU, 0x3bb794fabc162735U,
  0x3c1306063cf261b4U, 0x3cc997d63a22e0aeU, 0x3c3024c5bc14cc0cU, 0x3d254a123d06cab0U,
  0x3cad44433cd25cdfU, 0xbbf2c23d3c4f7364U, 0x3cb6dcca3cb28fc6U, 0x3cece8893cb331e7U,
  0x3ca32b4e3c90132dU, 0xbc7418de3d168385U, 0x3a44a475bb3e42e3U, 0x3c865b0e3c4fc41eU,
  0x3c0596663bfb7dd8U, 0x3ccbfdf83c8b13d3U, 0xbbf47e193a3eee92U, 0x3a54d6903ca70e54U,
  0x3c13b4413d182b8bU, 0xbbeccfedbb00521eU, 0xbcaf8a063cb22129U, 0xbc2ae868bbee7f75U,
  0xbc8db5a23cc7f972U, 0xbbeac9f73cb16360U, 0xbc6d7a373d0f2ce1U, 0x3d05f284bc8ee5afU,
  0x3b9d55183d0e65c6U, 0x3d070faebca2a199U, 0x3cf68101bbaba136U, 0xbbc3b2a5bc1f58ceU,
  0x3cdd5a083d135594U, 0xbbfd7e32bc69d634U, 0xba6fdb27bb886b97U, 0x3c8eac563c34046fU,
  0x3d08e87dbbac8c9cU, 0xbc02aa6a3c0a3c9aU, 0x3c0242553b953e6fU, 0x3cc959e7bc091772U,
  0xbb00d6943a31e381U, 0x3ca646f33a4222faU, 0x3c7867193cdc228cU, 0x3d0afa66bc870fbfU,
  0x3d0b74ed3c25dce1U, 0x3d0426943d0bc51cU, 0x3c01c7563c391ef2U, 0xbc7ca7ecbccc8f3cU,
  0xbc65758fbc9f91eeU, 0x3d00e0d93d139456U, 0xbcc4f00b3b4404edU, 0xbcc04b6ebc980996U,
  0xbca0ef9bbb68f715U, 0xbc1a724fbc16d62fU, 0x3c80ae6fbcaf8fffU, 0xbcc3473a3d0c491eU,
  0x3c0a3f603c0ea9c7U, 0xbc8effc1bbe35be3U, 0xbc060ac6ba4a4706U, 0x3bf355113cf23f3eU,
  0xbcd2047fbce0ea56U, 0x3cb32499bbfe9d16U, 0x3ccb7ece3cf3cc4fU, 0x3cee9d563cafc542U,
  0x3af8ac223caaa560U, 0x3ce339dbbd0052c0U, 0xbd032c1abce883feU, 0xba87ffa7bb76489cU,
  0xbc2507353b3efc0cU, 0x3cd439e23cd54571U, 0x3bdd6ee6b951b5eaU, 0x3cec0862bc81cd06U,
  0x3c7b68a03cd84d76U, 0x3b63ed6abc533c98U, 0xbcaba721bcb0825eU, 0x3b8fbc45ba79e89fU,
  0x3cc363ab3a020bfeU, 0xbc2766a1bc502752U, 0x3c8413a5bbefe6b4U, 0xbc8383cbbcb554baU,
  0xbbd87c0abbc1d24cU, 0x3c106963bc8919dbU, 0xbc935d123c89fd90U, 0xbc2801bcbc905fbcU,
  0x3af69077bc8fdbf3U, 0xbcc449bdbcb75880U, 0xbcdae45b3ced91aaU, 0xbc8192743cb21e7bU,
  0x3b21178c3bd73f96U, 0x3cb99916bbdfbbfeU, 0x3bf33a673c51a7afU, 0x3b0b04efbbfae981U,
  0x3cbae9fbbc636d62U, 0x3be944b0bce2636eU, 0xbbd9e612bc749106U, 0x3c57cd4f3c8844ffU,
  0x3c8395403ca42eb7U, 0xbc46fee13cb98f48U, 0x3c020bd2bbf21a9dU, 0xbce5a9663caa298eU,
  0x3c2d59993c7a3325U, 0xbcaabf5d3adb005dU, 0xbbec9a5e3cac0ca9U, 0xbcd29f1ebc1340a7U,
  0xbae9ceeebc961b74U, 0x39d33642bd048f4dU, 0x3c3ffdbabba71235U, 0x3cb49fb3bcc1fd11U,
  0xbc67a898bcfe11beU, 0xbb86025d3cb6d9ecU, 0x3c95cc6fbb6e0917U, 0x3c82bd6c3c69f8c8U,
  0xbcc65521bba1a2dbU, 0x3cc59b42b9a668a7U, 0x3c0b2d9abcf62b85U, 0x3c0d14943b9fe945U,
  0xbd0f409abcc446bbU, 0xbb810498bc578a4cU, 0xbcb220b4bc4eddcdU, 0x3b6cf622bd0dbb94U,
  0xbc34450abcaf60e2U, 0xbbfbd947bba6c27eU, 0xbd12c26a3c4e1ddbU, 0x3c29debabc827470U,
  0x3cc79ba7bc518fdbU, 0xbd05f215bd0d1910U, 0xbc23096c3b1be11cU, 0x3ca7a8e93cd9374bU,
  0xbd115274bc7a1d86U, 0x3b102f6dba911f73U, 0xbb3abb79bbecd546U, 0xbcfcba793bac2b35U,
  0xbcbcefa33cacefd5U, 0x3ab72d78bd0ea0d9U, 0x3c1c569abca6447bU, 0x3cc1784c3c178c0eU,
  0x3b991c84bcb26c8bU, 0xbd0784533b856b31U, 0x3c617014bc68e943U, 0xbbda8d85bceaa4cdU,
  0xbce2040cbcb34417U, 0xbcde280ebd0e23ffU, 0xbcfaf1163bc25624U, 0x3c1379b9bd0d51b5U,
  0xbc92e63bbd0fe4eeU, 0xbc2288a9bb9c608bU, 0x3c971dcabc959c4dU, 0xbcdc17393be9e19fU,
  0xbcd9f26ebc49be73U, 0xbc96d20ebd135aefU, 0x3b6a21f93be213c4U, 0xbb59e8563b6272eaU,
  0xb995b1ea3b5959c8U, 0xbc37d28fbc89d36eU, 0xbc20c9aabcfe1da8U, 0xbb675429bb5c5b46U,
  0xbc8a0250bca608a9U, 0xbcf1de443ccad79bU, 0x39aebbcd3baffa8eU, 0xbcf406753c3d8ff5U,
  0x3c4329b0bc911ab6U, 0xbc385af4bc10fa30U, 0xbc9ed96c3b93e44aU, 0xbb621d1f3c86928fU,
  0xbd0c293ebc9da9d5U, 0xbc698315bce4e172U, 0xbbd242febca071a1U, 0x3c833ce43cc1fe8fU,
  0x3cbaf5c33a1e6df4U, 0x3ca2bc9abb5639beU, 0x3bada57c3cc45678U, 0xbcb0d2d1bc4dc30cU,
  0xbcf6833b3c707ecfU, 0x3ba73fd3bd059d0bU, 0xbac5bc483cae2fb1U, 0x3c6945823b94f51cU,
  0x3a71095e3cbca205U, 0x3c9580f9bc9043cbU, 0xbcbe926bbc0bf96dU, 0x3bc2630bbc175135U,
  0xbc90a6723cc5bbcfU, 0xbce9ec4fbd10b8bfU, 0xbce672193bbfdcd4U, 0xbc787b323c3e1280U,
  0xbaf65a65bc27c068U, 0x3cd6ad94bbe453b7U, 0x3aa7e8bcbc297eaeU, 0xbc12d7153c46974fU,
  0xbc0f21e33af88fcfU, 0xbca7b5e2bce42b7dU, 0xbb8c9b223cdb4c83U, 0xbc4c91aabcd83191U,
  0xbc0ab97abc3106c5U, 0xbd07a139bbf79d37U, 0x3c67d361bbc61e8cU, 0xbc88f7b63c6a1688U,
  0xbc51fa33bca94b95U, 0x3c52af0bba4c46caU, 0xbcb9143d3c7c16e7U, 0xbcea5b173cb2234dU,
  0xbc1e3744bc97db38U, 0x3cd61d873cd97a4cU, 0xbcdfeb2f3c8f60f2U, 0xbcbb4a793c86c76cU,
  0x3b83cfbabcb7a860U, 0xbc8474f3bcb300ecU, 0xbca91aa43c3397c4U, 0x3b96652abc6d0605U,
  0x399779573b57dc61U, 0xbc1131013ca5ffc6U, 0x3ca1bbd2bba1e7faU, 0x3c428b79bbb7e224U,
  0xbc9f479f3c9ac07dU, 0x3c18a6a4bd06cd61U, 0x3c04db08bd184932U, 0xbcdcc904bcdc99a8U,
  0x3c2e112dbca506b8U, 0xbbe2af58bc82eaf0U, 0xbd0f580fbd0eb789U, 0x3cb2177e3ab1e388U,
  0x3cafe1f23cc68df0U, 0x3aa953f6bc66def5U, 0xbc4cd6913c0bc60dU, 0x3ca7bde0bd0101bdU,
  0xbc1646f6bc4adc80U, 0x3caa4de5bc38a3deU, 0xbc9648c5bbc75b7aU, 0x3afa8c7cbcce8825U,
  0x3c4943d9bc199e1cU, 0xbc30126bbd13d4eaU, 0xbd154b7dbcd37da0U, 0xbcadf673bc9e7acbU,
  0xbd19df833c4e08dfU, 0xbc14faa7b98154dfU, 0xba8631c9ba5c5fe3U, 0x3c0276f3bc9ebd3bU,
  0x3bb3f3eabcde9aa0U, 0x3c1c43f4babd673fU, 0xbccedd21bcb45da4U, 0xbc8a491cbceff3fcU,
  0x3c3d81c0bcc80033U, 0x3b1e0cea3c682d02U, 0xbcc38cd33bb0b831U, 0xbd163ef0bc689958U,
  0x3b635dcbbd12e1cfU, 0xbd0f4eda3c83d973U, 0xbc9d0e853c6d5dffU, 0x3b9d96b3bc038924U,
  0xbd0db2233badba8eU, 0x3c03ff38bc706fe2U, 0xbcb4928dbcfb7a7aU, 0xbd261729bccaa02aU,
  0x3c9d0de1bd24eb38U, 0xbcdad01dbcaadd22U, 0xbd107d18bc291e6fU, 0xbc86f8c5bb46848eU,
  0xbcde762bbd13886aU, 0xbccd28f8bc1b85c2U, 0xbd0225f8bcfcfef0U, 0xbc7762c0bca1042fU,
  0xbcc76a243c25839fU, 0x3c454fd73c0147beU, 0xbc87d7f63c582521U, 0xbc6cc68bbd0bd44fU,
  0xbbf154dabcbb0a39U, 0x3c31a891bbc33f31U, 0xbc0d93913c0ca988U, 0x3bf9ed7abc128bc6U,
  0xbd1b7894b9839ab2U, 0xbc82f14abcb93aa6U, 0xbcb1cc4b3bd88fd2U, 0xbc5d51b0bcac4849U,
  0xbcd174c8bb7b8c13U, 0xbc8ab4d4bc86342bU, 0xbaafd5d3bc762561U, 0xbcd4ea40bbca24edU,
  0x3c1f8709bc66209dU, 0xbcae28e93a4edf99U, 0xbd1a1500bc2c0127U, 0xbcbb36893c4dd506U,
  0x3c9928cfbd06bb7bU, 0xba5235c53c35125dU, 0xbd15a1fb3c3ffea7U, 0x3b9265e33c4bf67dU,
  0x3897c38b3c8287efU, 0x3c68b8ee3c4bc200U, 0xbd169f70bb402de0U, 0xbc95d80dbd0a6d1aU,
  0xbcfbbe79bc78935dU, 0xbccafca5bcf52308U, 0xbb08b201bcba337dU, 0xbc1001723c77ef61U,
  0xbcecefcebc0a572eU, 0x3c40665c3be46abfU, 0xbc74823dbcc0cabcU, 0x3c84c172bcb3a243U,
  0xbd153a00bc770071U, 0x3b0a787dbd11b2d9U, 0xbd0132ebbb67e404U, 0xbc8031e43b9c4679U,
  0xbc5b2974bcda3560U, 0xbc3a439abc3caf83U, 0xbd239de4bd1202e8U, 0xbb13f0563c1f1311U,
  0xbd0865bebd3162f9U, 0xbd103537bcc843bdU, 0xbc8dafa0bc81cdfdU, 0xbc94e8133a8b02edU,
  0xbcd05da9bab4bc3cU, 0xbcb4645dbc492156U, 0xbd2ccf03bc55f826U, 0xbc3c06033b6c91ecU,
  0x3bf3d0e03c6a5cf3U, 0xbc8dbcaebc802125U, 0xbc388879bcc1a70fU, 0xbcca2759bc9938cfU,
  0xbcc028ff3c0917b2U, 0xbd057f35bbe34ca5U, 0x3bd3f04dbd110892U, 0x3c5a14753b024738U,
  0xbc7842723b86c4fcU, 0xbc904e6ebba9e974U, 0xbc55f2f53aee9856U, 0x3c9f5f25bcc0da40U,
  0x3c4898a33c8c8891U, 0xbbd917773c864e60U, 0xbd1a8a12bcc65895U, 0xbd29232cbbbdd6faU,
  0xbba451e7bc9b3cc1U, 0x3aa7d6893c5a0f51U, 0xbc80c561bd143aacU, 0xbd227e9b3c082a78U,
  0xbcfbaec63c7e1dacU, 0xbc962ccdba0a5bd3U, 0xbc5472283c4238c6U, 0xbd186e89ba8cedf0U,
  0xbce1a8f0bcd3416eU, 0xbcb91b5dbd109560U, 0xbd28f57dbcf3be06U, 0xbcaded18bd0ee25bU,
  0x3c38f31ebd2f12d5U, 0xbc86a182bbb3b803U, 0x3c44fc16bd12efc1U, 0xbd23d0723bd4bbe3U,
  0x3bdb54f3bd17fa70U, 0x3c8268233ad5d3f1U, 0xbcb8d7c43c3604c6U, 0xbbfc6f32bcb6de5bU,
  0xbcae67aebae00b48U, 0xbd1c47cbbc48787aU, 0x3cb80dd0bd0a7e57U, 0x3a0c61793c5fe155U,
  0xbcb23e2fbcbfc930U, 0xbc44cc36bd20958dU, 0xbbdb73e8bc15ea3bU, 0xbd1a6cb83bb3a337U,
  0x3c3a036a3c237892U, 0x3c8e5fcfbccbc2fbU, 0x3bc8a130bcad4fffU, 0x3c5c815cbcbbb03bU,
  0x3baac9c1bc0859bbU, 0xbc46c55cbbca6700U, 0xbadac50d398944acU, 0xbd1a0f623c1abd29U,
  0xbc2a6cb03c104abfU, 0xbc10f542bc87aefbU, 0x3c4d1f84bc082bb6U, 0x3c6efa56bc6fd78cU,
  0x3c8d11abbcc03fbfU, 0xbd2143733c3f39cbU, 0x3c0169f83c2eabd1U, 0xbd12b2a23c47655aU,
  0xbb8ed7673c7593bcU, 0x3c0d3a073cb26b60U, 0x3c8fb9dc3c81a66aU, 0xbcfc16973cb876b5U,
  0xbcc7a6883abb7f03U, 0xbd198e2bbaa0dea5U, 0x3a8afc82bc138602U, 0xbcf768b1bbbaf23fU,
  0xbca965e7bcd5d065U, 0xbc66a09cbcb7a26bU, 0x3b9f5cf4bd0e7e37U, 0x3c363967b94cf215U,
  0x3c92d7e8bd0022d1U, 0xbcd4e82d3c198f93U, 0xbac01d0fbd11c391U, 0x3c99b3f0bd1958ceU,
  0xbd1826db3c9d14a4U, 0x3c8526a1bcd3cf5eU, 0xbc2842a5bc7ae493U, 0xbc77d3153c954579U,
  0x3c6472f0bccafde4U, 0xbd1f4276bd009c53U, 0xbcfec229bcd5cbaeU, 0xbcd6c1dbbca69e50U,
  0x3c807cf43c87122eU, 0x3c765f7bbce1e81cU, 0x3a3028773bd7c8a4U, 0x3c8cc606bcf99ee2U,
  0xbc29bedbbc93e7c4U, 0xbbd6a79eb95f2569U, 0x3cb5687bbc1b6b0aU, 0x3cb5eff7b96aae8dU,
  0xbd00b58b3ca9d1b0U, 0xbb3f6ee03c8e2e07U, 0x3b36d0e13bee2926U, 0xbd1352683abe2c0eU,
  0x3c0e7b2c3c776f31U, 0x3c9901cabcfedb4aU, 0xbbef50af3c3aea95U, 0xbbb2e871bc5ccf74U,
  0xbc8f09afbd089dbaU, 0xbd073834bc38f57dU, 0x3bac6f58bd0f52aaU, 0xbcbeb6e7bd0a8bb8U,
  0xbcd232dcbc92139aU, 0x3b4bb3c23cad0ec7U, 0xbcb3ab6a3c3ae49fU, 0xbd1744b13b53860eU,
  0xbb98a0223cb9be37U, 0x3c12c3f23ba6e7b3U, 0xbc7d12afbc8e8bf0U, 0xbcecc26fbcfb4c8dU,
  0xbcc485673c9d4911U, 0xbb84f8c8bc8e8136U, 0x3ba1b3debcf11d3bU, 0xbc477af5bcbfcd3eU,
  0xbc685f73bd08aa46U, 0x3abd00e83c9a11d6U, 0xbcedcaf5baaaa8b3U, 0xbb1ddb97bcfce643U,
  0x3cb729d13bd0d3b1U, 0x3cb076783b6a4a91U, 0xbce5ecab3c8531efU, 0xbd1c23a63c97c52bU,
  0xbca88ec8bcb6fd50U, 0x3c046ba53ca504afU, 0xbd10079cbbf9b531U, 0x3cbb38283b15f7daU,
  0xbb2b9a033cb3b9e5U, 0xbc8704c43c75189dU, 0x3be4aac6bd182700U, 0xbcf72635bc65323aU,
  0xbc95c64a3b11a84aU, 0xbc5b9a01bc80992fU, 0xbd07b41cbcc8a3edU, 0xbaa4392c3ba11bf6U,
  0xbcddda51bbbbc658U, 0x39aa7fbdbc984f0bU, 0xbc6444e2bd10bad8U, 0x3c34a691bb9e457fU,
  0xbd0be8953c165059U, 0xbb2db9a1bbf57d73U, 0xbc04349bbc17a4d0U, 0x3c58019c3c19708dU,
  0xbce50159bc0b0ed8U, 0xbd1111ca3cc51b46U, 0xbc9eb209bbb10fceU, 0x3c625c353cb6f063U,
  0x3c81f8ca3c9167c7U, 0xbd0ee7cebd156caaU, 0x3b6c0e79bcb35714U, 0xbb8ad0d5bc232fd1U,
  0xbc1c580fbb747147U, 0xbcb9608a3cb174a6U, 0xbd0e0ef8bd2102d3U, 0x3c5cd9babd03f1c4U,
  0xbcc846bcbb80a06aU, 0x3bf369cc3c729dfdU, 0xbba272063b999f7eU, 0x3c2c81b3bc689f20U,
  0xbd02430fba1af5d2U, 0xbcbc95903c97b454U, 0xbcab10d2bc636b12U, 0x3b16815abd1893a7U,
  0x3994371d3c9be406U, 0xbccd42213cac4460U, 0xbcfb88823c06930cU, 0x3cad2b5f3b83df64U,
  0xbc419550bc8bbd5bU, 0x3c94b279bc812fc0U, 0x3ba843093c9f3d33U, 0x3b814f29baad6f1aU,
  0x3c2105fbbbb64e27U, 0xbcface3bbb31515cU, 0xbc8f9fcfbbd21b34U, 0xbcc0ca46bb6264a9U,
  0xbd0d59663c643891U, 0xbbb82ac33a9f7139U, 0xbc33da923c98829cU, 0xbcbbfbca3c342951U,
  0x3c7d75213c300052U, 0xbcdd05b7bc17c06bU, 0x3bc14768bd0e3a81U, 0xbc1856cd3b7aafdfU,
  0x3bdac7d2bc04b5c5U, 0xbcbd9a26bc7b9b8eU, 0xbcf68e56bcddb360U, 0xbcc96b5d3bf94f76U,
  0xbb041bfabcf61c03U, 0x3c636d2f3c9e2df7U, 0xbaa3aaa03c72bdfeU, 0x3c988f54bc30e37bU,
  0x3c9e5a6fbc9b290dU, 0x3b55e896bcf954eaU, 0xbd120306bd13e29cU, 0xbd00dff8bd0d7929U,
  0xbc8fc9abbd01d001U, 0x3c824ee1bc22fde2U, 0xbc80141cbd256df6U, 0x3c5af8173c4a38ceU,
  0x3c54b7e5bc7fb26aU, 0xbd093d67bd149833U, 0xbc92f728bced9406U, 0x3bf8e960bcb69a8cU,
  0xbd0dc2623c952939U, 0xbc5b82293c9b2253U, 0xbd049c57bce1fdc1U, 0x3c949da7bc96a2dfU,
  0xbcafcf48bc21f6baU, 0x3b9d3870bd168b12U, 0xbd170c853c0f63d8U, 0xbb93c359bd0a3ad0U,
  0xbbc9cbc4bbe66b1dU, 0xbd1ac377ba059de3U, 0xbb64362bbc8b308cU, 0xbbef9a0fbc8c609cU,
  0x3ca16512bd249552U, 0x3ca379493c2da7aaU, 0xbd1af936bc823adcU, 0xbc6ce3923c9d5496U,
  0x3aeaf18dbce6b06fU, 0x3c181d3dbc74469bU, 0x3c9652e73c2f4b8eU, 0xbcf11d3eba22250aU,
  0x3c3fca8abc3a9f24U, 0x3abf761cbd1c992fU, 0xbcf0fa123c7ee44cU, 0xbd0650b6bd03fe63U,
  0xbc694108bd00c817U, 0xbd11e514b9ddd451U, 0xbc979ba13c21cf83U, 0xbcb87553bcaa0fc7U,
  0x3c03320fbc70b62aU, 0xbb0ba0c3bc046f15U, 0xbbcd20febd081d52U, 0x3b380e35bcdc73abU,
  0xbbe15c52bd048229U, 0xbd2abed5bcb4c2f3U, 0xbcd5f5e63c88195fU, 0x3bff88fcbb037200U,
  0x3c79081cbb375a9eU, 0x3c5a21dcbcc42411U, 0x3af31509bd182a58U, 0xbc12e5e1bca9a740U,
  0xbc212d493ba0a2c9U, 0xbcfcf367bc9c1822U, 0xbbc625b8bd329166U, 0x3ba94d5dbc9bd8caU,
  0xbcc51a01bcea1bddU, 0xbc860536bc87668dU, 0xbd2cf5afbcbd8c8aU, 0xbc3e31013c04ed54U,
  0x3c83e7f73c1713feU, 0xbc2c3a53bcc75d86U, 0xbd276a0bbc6cca2bU, 0xbd0359e0bc52fad5U,
  0xbd266a0dbd23fdbaU, 0xbc7f40e9bd313701U, 0x3b6896093b18b24cU, 0x3928f1fcbd0ddcd9U,
  0xbd0f67debb2756afU, 0xbcc51240bcec519bU, 0xbd26cdee3c03e961U, 0xbd2f34ab3c0353a9U,
  0xbb76b5423c0f62f8U, 0xbc008c17bc6c0beaU, 0xbbeee1f0bd336cbbU, 0xbcf138413ba60bb6U,
  0x3c2d6fedbca03f7bU, 0xbb899c5ebcdec2c7U, 0x3b49cf11bcc8ed6fU, 0xbcb4c432bc87d2f7U,
  0xbd2c4760bd2bd6fcU, 0x3c8eab7a3c8edcf6U, 0xbbd807eabcecf75bU, 0xbb315a6bbc2cb263U,
  0x3c8fe98a3c1d21d0U, 0xbd06a4ee3c6522dbU, 0x3a3e0ad4bd14757fU, 0x3baa6043bb464075U,
  0x3c2014ecbc789fb9U, 0x3be4a38abd1ee295U, 0xbd073da1bd145979U, 0xbbbef769bcea557fU,
  0xbd0e69c2bc65d98bU, 0xbcea2a6abd1d6e8bU, 0xbc40baa9bca4637dU, 0x3c880768bc95d037U,
  0xbca7b7e8bcb47e8dU, 0xbcfa6f2c3c21f62aU, 0xbd0e9a77bb1cf805U, 0xbce2bb84bbdfa983U,
  0x3c7b313bbd266771U, 0x3c31327abc9258b9U, 0x39f5cd6fbcbce9f9U, 0xbd220afbbc422b08U,
  0xbadc85773bb25119U, 0xbc67a974bc4ef8e0U, 0xbd1b5f7cbcc9284dU, 0x3aa76081bc86c69dU,
  0xbc9a4ad93c3e4c0fU, 0x3b7322f03a31e345U, 0x3beec60c39ce5225U, 0xbccc3977bd146d63U,
  0x3c8ad341bd293ecbU, 0x3bad8d293ca2ebf0U, 0xbd01ebed3c060cbdU, 0x3c61d1723c703646U,
  0x3c5af15b3b9705a2U, 0xbd12a3113c596332U, 0xbc987ed2bd08938aU, 0xbcf643c73c8109ffU,
  0x3c97cbbebb2b3bf0U, 0xbd280d12bc7da7d4U, 0xbb9f026bbd16c8a8U, 0x39b5bc6db987995dU,
  0x3c0c3d39bc8f8daaU, 0x3b75de23bd0a423cU, 0x3adc650cbcecb355U, 0xbd0e54083c950826U,
  0x3c396865bb80c8b2U, 0xbc9b39f9bb04bb20U, 0xbc0fb733bce7befaU, 0x3c7bb259bcc3b7e9U,
  0x3c785c0a3b924024U, 0xbd08bb57bc99650dU, 0xbd167a80bceace60U, 0x3c0a81cc3c9dc4a8U,
  0xbd05cb613c0e4ca2U, 0xbca2f6ad3bf053b8U, 0x3c894d7fbd03061fU, 0xbb5cf48a3c9581c6U,
  0x3c9396d9bbfa9d99U, 0xbd05f9d03c127e9bU, 0xbcbfc47a3b1c32d3U, 0xbd209f47bc38ecbbU,
  0xbbd28ca0bc03f9b5U, 0x39ad0fdf3b819954U, 0x3b48457aba11b293U, 0xbd0071813ba7856dU,
  0xbd13ebc93c04034dU, 0xbc24e31bbd10fef4U, 0xbbd02582bcf93ef0U, 0xbd152ca7bb20a732U,
  0xbcc54db5bcfbdc21U, 0x3b36b4f13bb4a528U, 0xba16e123bd2cd84dU, 0x3c2e442f3a06be94U,
  0x3c36a272bc64c3dfU, 0xba044461bc593a6eU, 0xbbce86af3c941847U, 0x3965ef52bcaf54ebU,
  0xbca366af3c122901U, 0xbd1c0e5dbd2da57dU, 0xbcae767f3ba99dc6U, 0xbc9216b63c4de9c6U,
  0x3c50e7bf3bc5d423U, 0xbd22750fbc8f1ec3U, 0x3c3a20e9bc8f867aU, 0xbd143fc5bcff04d1U,
  0xbcdd9663bd0d9856U, 0xbcc82fe1bcad4caaU, 0x3c8fab62bb036739U, 0x3af952f1bca979c4U,
  0xbd066175bc9eb851U, 0xbc51a7acbca5110eU, 0xbd1676a4bbd3ff5eU, 0xbd1176d63c5d1cfdU,
  0xbcd1bd623c07d74fU, 0x3c62bad5bd2c224fU, 0xbd25af2dbc99b11cU, 0xbca6bd37bcf57415U,
  0x3bca00423c6c3406U, 0xbcb129b83c309e6fU, 0x3a92d10abd22bae8U, 0xbd11c8ef3b9874e7U,
  0x3c6006cebc0ce189U, 0x3b4b645ebc4d8f28U, 0xbd1e71dfbc9503efU, 0xbcb191cfbc1a84c9U,
  0xbced292fbc0e9108U, 0xbc4ff841bcade0d6U, 0x3bef63ad3bff8135U, 0xbc2416713c141aa9U,
  0xbd1b4b43bc2d868eU, 0xbc7f8f11bd03d7daU, 0xbc9df3b0bc1dc1a3U, 0xbd2751af3c183419U,
  0xbd21eb37bcb9b7cfU, 0x3c1a667f3c80d091U, 0xbc7f91d2bc819791U, 0x3c82adaebbf4fc72U,
  0xbbfc2912bc1cb2a2U, 0xbbfab81bbb5b6864U, 0xbc8a2ab5bc8bf120U, 0xbcd1a44cbd2a74acU,
  0x3bae65cebd20fac9U, 0x3c69eefdbd1d7862U, 0xbd17d7cd3c66c34dU, 0xbceed7493c139c79U,
  0xbcb2781c3c2bf1d2U, 0x3c48cfc2bad5b955U, 0xbc8a7bca3b848b87U, 0x3c0063fabc1bfe30U,
  0x3b580da23b0aca64U, 0xbc1a63bdbd10f8a2U, 0x3c2360373c90ef8fU, 0xbcb0d60ebc8d12d0U,
  0xbcb655c3bc9a9820U, 0xbd18d6d9bc81ab90U, 0xbc90c4ea3c93df39U, 0xbbbbc2bbbc82c756U,
  0xbb452c21bd2bdd81U, 0x3c379d42bd2558c9U, 0xbb598afa3bdd200aU, 0xbd188f983c2acd67U,
  0xbc0b81b13c2fd763U, 0xbccf2d17bcdcd053U, 0xbcedb7463c4b76c6U, 0xbcbd10153c13bb7eU,
  0x3be9bbc73c38fee6U, 0xbbc09c3e3bd9889bU, 0xbd065bda3bf44dd5U, 0xbd1ee00d3c387799U,
  0x3a68202ebd09c5caU, 0x3add3c143c5058f3U, 0x3a162f8c3bc78a19U, 0x3c025838bc4c4dc4U,
  0xbc031982bd00c5a8U, 0xbd07f4a8bc34bcbfU, 0xbd05a3f8bd16aebdU, 0xbb953aa9bc82a906U,
  0xbce73935bc3b716fU, 0xbcbc7787ba76ab1bU, 0xbd1eccebbc08487eU, 0x3c9021f8bd03b797U,
  0xbcfea5edbd02c97aU, 0xbc2c1c1abd1891bcU, 0x3c821353bd01ec96U, 0xbcac6ed2bd06b086U,
  0x3ca19abbbc711ac9U, 0xbcf52edf3a6fa22fU, 0xbc2c28183a62265eU, 0x3a67d52ebcba0cc2U,
  0xbcfc5927bd1defebU, 0xbb3907bbbca66456U, 0x3b835a103c11f99aU, 0xbd1f5f71bd1238b3U,
  0xbc88233cbc8be79dU, 0x3c5cc76b3c1a18ddU, 0xbd1a8886bbb79bc0U, 0xbd2379f9bc9dea14U,
  0x3c70beb0bc67e917U, 0xbc973c8ebcb7ec7aU, 0xbcc32a5f3bb97f29U, 0x3c1e30c43c755b92U,
  0xbc9abfbabb8df4bcU, 0xbc8e51713a1d1c72U, 0xbc9dbb66b9f5ff0cU, 0x3cbba3c43c4bca9cU,
  0xbcbd1944bc1c31f0U, 0x3bbd07b7bc766bbbU, 0x3c54e18e3ca7de74U, 0xbd1a7e7abc908327U,
  0x3c30d77cbb8f6f6aU, 0xbbc52dc13c15cf2aU, 0x3c4d730e3c06b0b5U, 0x3ca6c2393c84c842U,
  0x3c02cde4bcb8652eU, 0xbba79a72bcf077d5U, 0xbc9f2313bccb99a0U, 0x3c6fe6db3c6df8abU,
  0xbcbddc83bba233a9U, 0xbc079e963bf2f991U, 0x3c8ba8073c3c0c12U, 0xbad84c1b3c62bf56U,
  0xbc10f4e03ca0d902U, 0xba1aeec7bc964b89U, 0xbce5795b3c2b5df5U, 0xbcfc4840bd254c34U,
  0xbd08b50fbc25a423U, 0xbc4d7c13bca8d7e0U, 0xbc9ce74dbd081e32U, 0xbce1b109bbebfb8fU,
  0xbcad3d73bcd5d46aU, 0xbbe66f8cbaa3f0b9U, 0xbcadc1ca3ae864d4U, 0x3c44b6a13c497caaU,
  0x3c1f995dbce7235aU, 0x3c2ea1a13c9b90edU, 0xbce1457fbcb5b04dU, 0xbcbfab43bc81e02eU,
  0x3ca29be8bd09e0c3U, 0xbcd6f3903bb247bbU, 0x3c91f0033c6a6b44U, 0xbbc40c7ebd00e118U,
  0x3a8e8eafbca6e58dU, 0x3b862452bcb1883fU, 0x3bad6b0b3c2a6953U, 0xbc921ab6bccc1d06U,
  0x3cbdd8343ca70903U, 0x3c51eeaa3ad84188U, 0x3ca59e57bd18df3dU, 0xbd0548f7bc8fbf68U,
  0x3c42ea4c3c83aba8U, 0x3b694d473a162f1cU, 0x3c0e7ae23c7e1a2fU, 0xbd02ac8dbcf2dfb4U,
  0x3c278611bcd8d117U, 0x3bfa28e13b41842aU, 0xba11cb2a3cd44693U, 0x3cbffaa0baadaf47U,
  0x3bbec4a0bbf9d7efU, 0xbd0c64a1bb0180efU, 0xbcfd0c4fbcd78891U, 0xbc6248a7bcd58f09U,
  0xbcbbe0b3bcf47555U, 0xbb81ec533c8c96b2U, 0xbc439dae3caf2ef7U, 0x3cb5073dbbee7507U,
  0xbaf2187f3c66766dU, 0xbc4b160abbc02951U, 0x3cbcfb88bcecf869U, 0xbd0bc72cbc3cc256U,
  0x3ccab58c3bfe2a2fU, 0xbc9edd693c19e6f8U, 0x3a408117bc754935U, 0xbca5df1c3af3b626U,
  0x3c89b4d4bb5c7bbdU, 0x3ad1bdff3c6f3e2bU, 0xbceff17fbcfc6fb0U, 0x3c828025bcafdb8dU,
  0xbd036644bd04f796U, 0x3c97a4c23c0bcd6aU, 0xbc410472bc0367c8U, 0xbd09a0c6bc0e6902U,
  0x3ca44394bc0c7532U, 0xbd0453083c51986eU, 0xbd0b5f9bbc915b34U, 0xbcfa22293ca167a6U,
  0x3bea4331bc7bcdfcU, 0xbcb14e0bbc89b127U, 0xba1955ef3ca7b7cfU, 0xbcc0d2623c38b0c4U,
  0x3cbdcd64bbb96037U, 0x3c09ff9a3c988a3fU, 0xbcd702223bce1cf9U, 0xbc73490ebcb13926U,
  0xbb66e5133ca5565bU, 0x3c82bb7e3cb89061U, 0x3c88ff6e3b838f4eU, 0xbcb537f2bd0eb276U,
  0xbb1b6aadbd03ccc5U, 0x3cce013c3cc78602U, 0xbc1f05d9bc4bef5dU, 0x3c1e94d1bcc9a195U,
  0x3ca7d4f5bc399344U, 0xbb9bffb1bc852598U, 0xbce7ce553cd0b58dU, 0xbc00a419bc9d0f7fU,
  0x3cbcba593caabe83U, 0x3c08fcbdbb845fc2U, 0xbceeb2c2bc58ab47U, 0xbc1a15adbc4b0b19U,
  0x3c9700943bc7e255U, 0xbd07a35f3cb0b3f8U, 0xbacc3642bcf325bbU, 0xbcf2ebb83bdb1737U,
  0x3c2755fdbc399680U, 0x39a159a63b9b178dU, 0xbccf3b63bcb40fc4U, 0x3c0a6844bc00da5bU,
  0xbd05cdafbcc1549aU, 0x39c1336dbd051224U, 0xbcae4c7a3ca417c1U, 0xbc44c4f8bd0a737eU,
  0x3cd44ada3cc41aa9U, 0xbc7e42e93b87da7cU, 0xbcce4611bbeee21eU, 0xbccb1603bbdbbb0cU,
  0xbc990dec3c68765bU, 0xbbcd30ad3cd09107U, 0xbce89ffdbcccd188U, 0xbc3fafcd3ae36308U,
  0x3a1b99cebae280c9U, 0x3be0b1a5bc406924U, 0x3cc46c7e3cd09e8bU, 0xbc9bde36bcc6642eU,
  0xbceb93c93cc391e9U, 0x3b8d9d39bc3d5401U, 0x3c124f3ebce3a577U, 0xbb95e4d0bce16a97U,
  0x3ba015e13c7a3413U, 0xbbfff09cbd0bd951U, 0x3bca5b58396b1598U, 0xbc710e2c3ce4cb2eU,
  0xbc80aafa3c97908eU, 0x3c85bfd8bcc76cc8U, 0xbaa81d14bc46efd9U, 0x3c8803383cef8eedU,
  0xbcdf046c3b8180aaU, 0x3c38664ebcea31e2U, 0xbb05151abc902e6cU, 0xbc7fc94bbce19495U,
  0x3caeb529bb85cf74U, 0x3ac7732cbcb3db41U, 0x3c35bbc83c60832aU, 0xbcbec3063c68c465U,
  0x3ba21077bcc96b7fU, 0x3c0760373c20894eU, 0xbccae029bcf3b860U, 0xbc90647cbc3d6798U,
  0xbb2736843c86db79U, 0x3ca14db6bb0b5f6eU, 0xbca9b2853bfd8eddU, 0xbc9a85e73c811332U,
  0x3ca6acdcbc0645f2U, 0x3bc38d963c206d06U, 0x3cad4c0c3ca4c8c6U, 0x3be39fca3c36d970U,
  0xbc5792933b05f8a0U, 0xbcf92ceebc68f2efU, 0x3cc505dfbcf49ab0U, 0xb98cb048bb5d042fU,
  0xbcbee66a39a13bdbU, 0x3b9c003abc998384U, 0xbc75af9abb3557abU, 0x3b73997dbca0ce3aU,
  0xbb392eaabc8d2ed5U, 0x3cbb8a063c8b23daU, 0xbb90d1c33c6ef585U, 0xbce548a2bcaef953U,
  0x3b76e9a83cc3acd7U, 0x3b30157dbd01bc79U, 0xbc0fd5ca3c2df143U, 0xbc849556bcf7287bU,
  0x3cbebdfbbc9c1536U, 0xbc0787703cacc83aU, 0x3bd480a3bcdbabddU, 0xbb3e785cbcaf57edU,
  0xbd00c0c03c46833cU, 0x3c22f96ebc19f844U, 0x3c288868bcebbe36U, 0x3c181970bc5b84d3U,
  0xbb7e5f28bc9f0edfU, 0x3ca974c83ccfa184U, 0xbc8b1f9dbb0eb185U, 0xbc557975bb61e82eU,
  0x3cdf01c43ca5e5b5U, 0x3ba856b53b21cd0bU, 0xbccaafcf3cbc38c1U, 0xbbbe7bc63cf121c1U,
  0xbc3bfa3c39e8459aU, 0xbb4dfe733cefebdfU, 0x3be0daa5b9b841ceU, 0x3b54d7723cd829e1U,
  0x3c0c01bb3ca7926eU, 0x3c82492ebc329982U, 0x3d0032d43c70832fU, 0xbcc052a23b3a66deU,
  0xbc888b0e3c731061U, 0x3c6a8ccf3c291aa5U, 0x3b16967cbcce42d2U, 0x3cc55db0bba5eb5fU,
  0xbcba3b58bb58d7ddU, 0xbcceea5f3b7723b4U, 0xbb9e122bbc798e49U, 0x3cb721a0bb029028U,
  0x3c8d40b1bc15d9fbU, 0x3c96c2593c40338cU, 0xbc7547d1bc31c58fU, 0x3cee93a13cf2d9c5U,
  0xb9f3ef943cbe2d13U, 0xbc16f145bcc40e7eU, 0x3c8159053c5ed9e0U, 0x3cffc0aa3d009facU,
  0x3b4d89b2ba245bc2U, 0x3d00a3ab3c50d26cU, 0x3ca2adacbcaaf594U, 0xbb5806333c482174U,
  0xbcd21d533c19b4faU, 0x3cc7c68fbc30e863U, 0x3baeb8c7bbf3dbd2U, 0xbc88effa3ce416f5U,
  0xbced176b3c3b56faU, 0x3c0dfbbf3b94ecdaU, 0x3cc09288bc8be928U, 0xbc60cc0cbcea37abU,
  0x3c979010bcb405a9U, 0xbc55e0aebcdc8bafU, 0xbc9ed3bc3cb21504U, 0x3cac0b9f3c8fcdbeU,
  0x3c1130b8bc94d1ebU, 0x3beb5db93be12b28U, 0xb971bdb0bc28cd6cU, 0xbb901f04bc5d422aU,
  0x3cb136d0bcbf3a0dU, 0xbb60dcdebcb598ceU, 0xbb3df195bb9878c9U, 0xbbcc78c9bba5a99aU,
  0x3b058bd43cb7f974U, 0xbbea7a1cbcb85921U, 0x3c5be8c43c1c0246U, 0x3c640a0d3c9a8bb2U,
  0x3c94ec59bc034003U, 0x3c1668583c6b4d52U, 0x3bbba9be3ade3b01U, 0x3c37799fbc40bf06U,
  0x3d0117553be58b9aU, 0xbcc9a838bcc0c23aU, 0xbcf206283c18f02dU, 0x3c3738373ce8efd9U,
  0xbc9cc386bc007e90U, 0xbc929335bc82620fU, 0xbba2dbcc3ccbb09fU, 0xbc853d2c3b9ee908U,
  0xbc9402c03cc4953dU, 0x3cde803c3ce392bfU, 0x3ce729953ba2c859U, 0xbce3a7623b5963ebU,
  0xbb7337ffbceab938U, 0xbca155243c55ed89U, 0xbc91aae23c90cac1U, 0xbc87ce9e3cc6b189U,
  0xbbe8ef713cce817eU, 0xbc19a58cbc0e6e82U, 0x3cf2e3af3c18d0e9U, 0xbae82f49bc26dde9U,
  0xbce40141bc58db91U, 0xbc34de58bcf0e856U, 0xbc1c8ed6bc6fe5b8U, 0x3d0519533a5e2027U,
  0xbc81436f392d65d2U, 0x3cb56669ba2a176bU, 0x3c97ef063baed4e2U, 0xbc3de70fbced0184U,
  0xbb06823a3c21498dU, 0x3cd1a4053c911306U, 0x3c364febbc8ec5dcU, 0x3c8811623b38863fU,
  0xbb4920413c93155eU, 0xbbcc4ab0bce3f999U, 0x3bd7e8cf3abfb777U, 0x3c823911bc443523U,
  0xba3fc56cbcc0b8f7U, 0xbc13ea193cdf822cU, 0x3ce39701bc8afa8dU, 0xbc904f30bcb8d857U,
  0x3bad20bd3c0a295fU, 0xbc047e0c3c1eec2fU, 0x3cf075cd3cda3d16U, 0x3c469aa2bceba81cU,
  0xbc5654073c17880bU, 0xbc6927abbc05651cU, 0xbce2dce43c60addeU, 0xbbb185373ab3a29eU,
  0x3c65195e3c9a1287U, 0x3bb438b2bca2afa5U, 0x3a37aa30bcb6f71aU, 0xbcc9d480bcce0578U,
  0x3c6c40bb3cf7be20U, 0xbcd26f7f3c0d206dU, 0xbca9df2fbc839becU, 0x3bd24ee2bcc5a54fU,
  0xba847a943cc7a23eU, 0xbbafc4b73c233c40U, 0xbcc40d7fba58ffe7U, 0xbcc3a97abcbe8bedU,
  0x3cedcf36bc25a699U, 0x3cd58f9ebbf82da7U, 0xbabe2f423c6830e7U, 0xbcb0c02bbba40038U,
  0x3cb56a68bb148b3eU, 0xbaa2deb8bcd205e4U, 0x3c702765bcaf670fU, 0xbb99cbdb3cd654c6U,
  0x3c049c41bbca587cU, 0x3cdadcf03cb93e95U, 0xb9b53ed3bc4a7a41U, 0x3c3fa5c53c54d6daU,
  0x3c13975abc496957U, 0x3c623bd73ba43811U, 0xbc04b9f8bcd2d7dfU, 0x3ba0f9b6bc8af9f5U,
  0x3cbf77d43ca5b872U, 0xbccaf0a83cbc6765U, 0x3cc2089d3b42c712U, 0x3ca3199dbce877ccU,
  0x3c2e865b3c71e582U, 0xbca13e643cc86a70U, 0x3aea7e303cf9745cU, 0x3cbd6c293c6ea278U,
  0x3cd5e9543cc26847U, 0xbcca5a3ebc445791U, 0x3d05c244bc8dc3a3U, 0xbba2ed96bc49eb54U,
  0xbc0efad6bb6aec72U, 0x3c6d8e923bafddd2U, 0x39ecf826bca270daU, 0x3cf4e4f53ccd767eU,
  0xbc38220b3cfcf065U, 0xbbe712b13a8518beU, 0x3ce0f9203cbaa667U, 0x3b249da63cf4cb65U,
  0x3ca4962e3c1c573dU, 0x3b290723bbcc4864U, 0xbc805681bca68ca8U, 0xbc6386123d037c6eU,
  0xbcd4cddfbc6cab12U, 0xbccb44ba3cb865bbU, 0x3d0c4329bca6a0eeU, 0x3ccb72013c41eab1U,
  0x3c0fe478bc4dc4e0U, 0x3d0e4fe73b139bd5U, 0x3c8cfec03d031b2bU, 0x3cfca6013c60aa5cU,
  0x3c14ecf53c77c2c3U, 0x3c9a79613b164c1aU, 0xbcaecb003c8d583fU, 0xb8fa626f3bd5129fU,
  0xbc91bd753ccd06d1U, 0x3aaacf753c40b26eU, 0xba4ec7dfbc412758U, 0x3cfc8e863cf03e4aU,
  0xbbdebf5abc51aab4U, 0x3c95c194bc5e8936U, 0xba5cf7aabbbb291aU, 0xbc9512c03cbd42b7U,
  0xbbe337933c974f41U, 0xbc850516bc86cde0U, 0xbcc5a683bca278b1U, 0xbce0e279b91bff80U,
  0x3c263463bba7945bU, 0xbc0825103c9cdb53U, 0xbc12cc8c3c60cb3dU, 0x3cfc00763d05735eU,
  0x3ca6c69a3c175234U, 0x3c8dd7cabcb38678U, 0xbb95329b3ca95a39U, 0x3bccdb84bc2d6c4cU,
  0x3cd1bb183c1d2774U, 0xbb82f5a53b32ccb4U, 0x3cbc47f7bcbf94e7U, 0xbc2c2b633cd14974U,
  0xbc2f71823c547ca1U, 0xbcdac402bccec4ebU, 0x3cddb88c3b3c9d7cU, 0xbb669ba3ba79ae13U,
  0x3ce1cbf83d08aa9cU, 0xbca76aeebcdca625U, 0xba1d0fd93b5e40f9U, 0xbb5c8d4bbcad852aU,
  0x3cfd0aa5bc69cea3U, 0xbc81b8a73cb40a8fU, 0x3a9052b53c6859a4U, 0x3d02e9a2bc29bdf0U,
  0xbc6ae25abc555b91U, 0x3cea9f90bcc4499bU, 0x3c0d7cb0ba2c2c38U, 0xbbf71a03bcd52346U,
  0xbb77992bbc8398ccU, 0x3cfba9bdbc53245bU, 0xbb64c12bbcc17b51U, 0xbb4bd14dbc76cc42U,
  0x3980197cbca33eacU, 0x3ccf616f3c4b0597U, 0x3ce2540e3b58b6f4U, 0xbc3e8e233b5d58a2U,
  0x3bfbdc31ba617338U, 0x3d1040b3bb380282U, 0x3cd83a573c99f39bU, 0xbc34a72bbbc87985U,
  0x3ce5d8283bcb9abcU, 0xbc7dffbcbbc86c39U, 0x3ca338b03cf9e97cU, 0xbca3d8ec3bef7549U,
  0x3c42a92cbc91f64aU, 0x3d09fd473cb7f0f3U, 0x3cf953403c8ddc09U, 0x39207c683cbc2794U,
  0x3d06600a3c52b340U, 0xbccec68d3cace889U, 0x3bd682c1bc1037ecU, 0x3d0ad22a39fc0606U,
  0xbbb2e14f3d00023eU, 0xbbbe0e8abca992dcU, 0x3d11a372bca506bfU, 0x3cab564f3ca31bc1U,
  0x3c0febedbca999dcU, 0x3ceb80e6bbfc1be4U, 0xbc98dc3f3c63720bU, 0x3d11afc93cd40e02U,
  0x3ba2f5cabb88ea7dU, 0xbcd53c1a3ca11f86U, 0x38df82fcbc1600beU, 0xbc3030f7bcbe3250U,
  0x3d0409d5bc8d66b9U, 0xbca81f61bc996f63U, 0xbcc3e9543c353a94U, 0x3d0052e73b90525aU,
  0x3d02880d3c63bd7fU, 0x3c5a0eaa3cceca1cU, 0xbcd039903d0302f4U, 0x3ce4be05bcad7a64U,
  0xbca97f83bcd21d39U, 0xbcd706f73ced2093U, 0xbca6bb8fbcc1b6b8U, 0x3bde0bc63c6daf99U,
  0xbb4c00aabbfc6106U, 0xbc8d247c3c594182U, 0xbca951753ccf3565U, 0xbb32aff3bc7d2389U,
  0x3cc490213cc4c2bdU, 0xbabc18b83cbcabc8U, 0x3d081b7c3cbcab39U, 0x3c38b3e23b72797dU,
  0x3cd36fcd3ca6730eU, 0x3c987156bc325360U, 0x3b3fc4edbca0752cU, 0x3bb733363bbefe86U,
  0x3be57f71bccdc663U, 0x3cbbf0af3c8c361dU, 0xbb90fef93b74744fU, 0x3c88a9cf3ccea5b1U,
  0xbcbd3e04bcb27865U, 0xbb99406b3c956e11U, 0xbc68003d3d0357c5U, 0xbcb6a63e3b0386a2U,
  0x3cf0509b3bed43e9U, 0xbc83b6ee3c9730caU, 0xbc3c1689bbb32b01U, 0x3c90bdd9bbef5484U,
  0x3cc5cd533bab592eU, 0xbc5ff25ebc34c8d1U, 0x3b75b1d03c337526U, 0x3ce03b523ce024d4U,
  0x39f20a57bcd955a4U, 0xbcaed7613d02420bU, 0x3bea38dabbdccd13U, 0x3c177c52bb5447e1U,
  0x3cda2dcd3cee8afaU, 0x3bf03f973c811c1bU, 0xbb7cfaab3d07d205U, 0xbb2c0d853c371b03U,
  0xbce8ade0bcb81cacU, 0x3b1e8b113ccf0ec1U, 0xbc6206c63b60a71aU, 0xbcdca11f3c51ba10U,
  0x3ba6f694bb3edceaU, 0x3c14cf6ebaa9e864U, 0x3c5a8bfe3c3198afU, 0x3c9ffaa53ba78090U,
  0x3b642256bc5292c3U, 0xbc8a9cbf3bd11234U, 0x3cf9195a3be60b63U, 0xbaaa60d73c3a7b7cU,
  0x3b2e9f68bce3f2efU, 0x3ccdca073c815ab6U, 0xbbdf024a3cf717a6U, 0xbc8baa90bce5220dU,
  0x3d04463a3c039f29U, 0xbbc678bfb9ba2678U, 0xbc8e5c413bcb3865U, 0x3c4bfe183d076d50U,
  0xbc5893e03c6e64ceU, 0x3cac02dc3bbc6489U, 0xbc7dd3f1bc976fe1U, 0x3cf389ee3c239175U,
  0x3caf09e23c08a37bU, 0xbc0cb3903b8a7964U, 0xbc013d6b3ba33dc8U, 0xbc2db927ba808ea5U,
  0x3cf082f9bcd7a9f3U, 0x3ca43b343c2145d4U, 0xbb847e893ca1574bU, 0xbc5a92f13c3453c2U,
  0x3cbeb2e1bc7d7087U, 0x3cead634bcc6fd45U, 0x3b8413ce3ccf2b63U, 0xbce8273c3cc1ba71U,
  0xbca8d4c3bc30a0edU, 0x3ca4f7ca3d09687bU, 0x3cbbb0643ccd8cf5U, 0xbc771f0cbcd822d7U,
  0x3ca5f1c03c8c3afbU, 0x3c652dbbbbfe465aU, 0x3ccb48e23abf9776U, 0xbbb177cf3cb072d0U,
  0x3cc9e0b1bb09a8f4U, 0x3cff63043c004baeU, 0x3c7f3d4b3cb5d0e3U, 0x3d03863cbc5d5f10U,
  0xbcbb07463c44e33bU, 0xbbfadc243ae082a4U, 0xbb21f1cb3d07eb2fU, 0xbcb7b9c3bbd3566cU,
  0x3ce05bde39e4cfaeU, 0x3d0163813b7e5477U, 0xbcacdc283add55b6U, 0x3c1710703ce94ae7U,
  0x3c433e22bba7cb5eU, 0x3d0ea27e3bcc48d1U, 0xbcd4bffdbc4692faU, 0x3cd2c89e3ce5faf2U,
  0xbc2f2d343c816847U, 0x3c8fade6bc03f639U, 0xbbf947e73cdca30cU, 0x3c9868e0bc0fe8a2U,
  0x3c7db95f3c3d817cU, 0x3ce277703d050f96U, 0xbc7f881d3c5ebbfdU, 0xbca7e3fbbbffdb71U,
  0xbcb191183c34138eU, 0xbc99a946bc866e5cU, 0x3cb127713cd18701U, 0x3ce2084bbcbc9b92U,
  0x3c885fdfbc71ca94U, 0x3c98b6a53cb5ececU, 0xbcad98a03cfbd028U, 0x3ca024e3bccf0f1bU,
  0xbc93d6cabc8b3be7U, 0x3cbb133a3cc34e07U, 0xbcd5dcfdbcafc785U, 0xbbf106ffbc850b0bU,
  0xbc8704383c91ea18U, 0xbcca0f2bbca7fccbU, 0xbc292c893d0324ccU, 0xbc8222bcbba6e468U,
  0xbc87be73bce7a9d9U, 0x3cb769173ce0aadeU, 0x3c1064013c320ccfU, 0x3cf561a33cdb003dU,
  0x3c6ca372bc10e4e7U, 0x3cf1b4c23cf0d963U, 0x3cefde5bbbca4225U, 0x3cd596923ca736daU,
  0x3c988874bca0a215U, 0x3c2b17363bc03fe1U, 0xbb81f9d0bb7dfd1bU, 0xbb8b1e5abc9de163U,
  0x3cf640d3bcb8525aU, 0x3cf210243ccce78dU, 0x3ce3f9103bc4be02U, 0xbc4f8c053b6c6375U,
  0x3cfeb0a63b820fe3U, 0xbc33703a3cb33c30U, 0x3b68f6b9bcb800e6U, 0xbb23f6d43cba8a1eU,
  0xbcb523203cf3d471U, 0xbbb3db483cd60790U, 0x3ccce6d63c909223U, 0x3cf727fdbce5fcb1U,
  0x3ca20eeb3d00fa1fU, 0x3d055660bcc2e3a2U, 0xbb418893bc878d0dU, 0xbcdc7eaa3a901dcaU,
  0xbcd23750bc9fe255U, 0x3c3fd9393bdfbd1aU, 0x3a8077a7bbe9f73cU, 0x383e71ccbc999919U,
  0x3b2370ae3c11e707U, 0x3d078e4cbc46fa9cU, 0x3baf8f0d3c46da87U, 0xbc7e796ebcab79d9U,
  0xbbc236b7bc7a1e6dU, 0x3ca854973cdfb26cU, 0xbcc30c79bb10d12fU, 0x3c57681cbcea6905U,
  0xbcd2431c3c96a80eU, 0xbc53bad6bb6b286fU, 0x3c0686c73d036673U, 0x3c1c72353bf798d1U,
  0x3cd29f54bcb1b49dU, 0x3d0414f0bce424afU, 0x3c1dadb3bc11c9e6U, 0xbc738c413c93c86eU,
  0xbc5f56dfbc0df47fU, 0xbc80bba53c3a9fabU, 0x3cc6e894bc0f3cf6U, 0x3beaa86bbc5abf87U,
  0x3ccefa8cbca72e04U, 0x3ceba0a1bcdf3c5cU, 0x3cdf875cbc50ec8eU, 0x3c10a44e3ccdbeb4U,
  0x3c574a3e3c8eeb59U, 0xbc55db383b33535eU, 0x3bd314e8bc5af8caU, 0xbc31aa223c8d5e7eU,
  0x3cf964473c1d7202U, 0xbcba61493cc7cea6U, 0xbcc3cf0e3c3cc347U, 0xbce945543bf8b818U,
  0x3c7dd1453cb8b938U, 0xbcc3d8ba3cd0e376U, 0xbcae3081bc871988U, 0xbaf75e8c3c8fa3dfU,
  0x3ce97c593c25746cU, 0xbcdaed24bcd892e8U, 0x3c1566eabb1252c5U, 0x3c6bd06f3b61479aU,
  0x3c8e1331bc0f9749U, 0x3c8e7eb6bb506aa6U, 0xbc8e81a53cb4720cU, 0xbc2052a13c647ac5U,
  0x3c2b20a63bc358fbU, 0x3c1b52d1bc65f480U, 0xbcb6b476bcc73998U, 0xbcdb69713bb66b37U,
  0x3cc7cb4f3cbb67cdU, 0xbce660f0bc1deec9U, 0xbca97225bbac1f9aU, 0x3ad482033c00f6d7U,
  0x3c022675bbbf3919U, 0x3d079e093cb75bcaU, 0xbcc3794f3c94658eU, 0xbccaebda3ca56e00U,
  0x3cd15c7d3ceecef2U, 0x3c9684f6bcc85fb6U, 0x3c8836193c960c20U, 0x39470855bc463604U,
  0x3cd7c247bc9dc8efU, 0x3b66925d3a63282aU, 0x3ccca759bc5d7475U, 0xbca431223cf12021U,
  0xba142987bc93c13cU, 0xbb8042983c919600U, 0xbbf2208cbcdfe1b4U, 0x3bfaf6bebce0147fU,
  0xbcc349f93c00bf0cU, 0xba3fb9f33c4f7ab7U, 0xbb59d045bc164f98U, 0x3a92a1173c2e179fU,
  0x3b8dba553bd0946aU, 0x3cd1345d3c4074adU, 0x3c34bbd23cad9e72U, 0x3c36b4ef3ca91c3cU,
  0xba982d083916909dU, 0x3ad32dc1bcb98d4bU, 0xbcac63933ce92782U, 0xbc940aa8bc3e4d5bU,
  0xbc733104bc233788U, 0x3c939550bcd97219U, 0x3ccba795bbb7872cU, 0x3c5e0bbbb9e9f941U,
  0xbcca7e6a3c264acfU, 0x3d04da693c9ad6acU, 0xbbf9eb5d3cf5736dU, 0x3cf34a14bc90f0a0U,
  0xbcee07e0bce1c595U, 0xbcbc34b0bc8999deU, 0x3cd942d73c99aa8bU, 0x3c616d553ce1f971U,
  0x3b5a6ecabbc4dcbdU, 0xbbac34a1b979e4a4U, 0xbceedb6dbb5e748cU, 0xbcb153eb3b15cea9U,
  0x3d012683bca4e65aU, 0xbc6fd50fbc86b212U, 0xbcbf23fdbcca4086U, 0xbb36e986ba7d9383U,
  0xbb9da5c5bc121a2fU, 0x3bf216c83c8ec903U, 0xbca3032e3cc192bcU, 0x3cc5cab83baaba8eU,
  0x39f6a7403c5a6c0eU, 0x3cfc3819bcd2d7deU, 0x3c3e8bba3ba3603dU, 0xbc44bbefbceea8b8U,
  0x3cde9d4a3ca68af5U, 0x3cc156f6b9dc6714U, 0x3c4288e13b3d8bb2U, 0x3cab97fdbc27f3e3U,
  0xba2674cc3ce5a957U, 0x3d034bec3ce28479U, 0x3baa6109bc92cc37U, 0x3d025151bbd7522fU,
  0x3c198a45bbc9469dU, 0x3cd2441c3ce88222U, 0x3ced76573bb46970U, 0xbaa81e44bc7e4c9fU,
  0x3b0ed9613c40112bU, 0x3cb176533c83cb30U, 0x3ce71199bc1ae529U, 0xbc31bf35bc2d7aa8U,
  0x3aee9927bcb9cbb5U, 0x3cc22fdabc817254U, 0xbbbefad53b99d5e2U, 0xbcb42824bc36a6a8U,
  0x3aa66dd9bc3c22d9U, 0xbb9cf2e8bbfb07cdU, 0xbc484cf73d01de71U, 0x3c96ca303d00b60fU,
  0xbb6ac9ffbce793b1U, 0x3c2e61fe3cdf71faU, 0xbc9e7cce3c8a66afU, 0xbc1cb69b3cc530a1U,
  0x3c352583bcd0c0f0U, 0xbc01a47cbc6490e8U, 0xbc42d2e0bc7c2b5dU, 0xbcee8b8f3c965e53U,
  0xbcc990c63c35528dU, 0xbcf483febcb7d18bU, 0xbcd81806bc136952U, 0x3c069a2c3c13e831U,
  0xbbad65e6bbaa3562U, 0x3cde7ee8bc87de79U, 0xba3f3d003c81b0dbU, 0xbcb8c20b3c6558aaU,
  0x3c4fe6d53cff7372U, 0x3bb76d29bcb265ccU, 0x3ce59d70bca76994U, 0x3c5a450b3c7c4e3dU,
  0xbc282359bcb2b1dbU, 0x3c0503023c19ae25U, 0xbcaccede395e5090U, 0xbcb45c923c63b599U,
  0x3c3708a03ccc70b0U, 0xbb17866fbcc80738U, 0x3c5fec7f3c4edac8U, 0xbc1ef0983cb2bcc4U,
  0xbca4570f3abb35c4U, 0xbbc46695bccfb227U, 0xbb410f6f3ca04847U, 0xbc10ef6dbcdbdde0U,
  0xbca3fe9cbccb98faU, 0xbcfc6801bc7c4faeU, 0xbcb12d733cf4a242U, 0xbcccbc5f3ccd03a2U,
  0xbcd19c0ebbfe3479U, 0x3d01e9dd3c659c97U, 0x3c0c0c72bcdafabdU, 0x3be78502bcb51630U,
  0xbcc2da043bd769eaU, 0xbb588ce03c994b48U, 0xbcb6e19b3b2b1229U, 0x3c069c8a3ced08e1U,
  0x3c6409343cba2565U, 0x3b8a60333bd6abb0U, 0xbcf20390bccd06fcU, 0xbcef4d8e3cd101abU,
  0x3c7ca610bc319076U, 0xbcc03db23c4a586cU, 0xbc1f7bf43bc13ddaU, 0x3cee1b3c3c47e54eU,
  0x3cc7aa363cc9e4ceU, 0xbcdea7d7bc11f162U, 0xbc08a5783cae86e8U, 0xbcc8dd0bbcf45592U,
  0x3c5bc4e4bc244ab2U, 0xba916ca83c002477U, 0xbcd259623c8c4212U, 0xbce9a712bcedaa76U,
  0x3bf414a83b8e0928U, 0x3c3f5fc83ce7550dU, 0xbcd0a6b9bbc5a0b0U, 0xbc7e4b4fbc7e26a4U,
  0xbbccc518bd00a61dU, 0x3cad1f4d3cbf412dU, 0x3bdf0b8abc99d0e7U, 0xbc4841a93c977d3aU,
  0xbca6f0a73c1bd077U, 0xbbb11c5fbb67dabeU, 0xbbd866093cc2cad8U, 0xbb86cc83bc2e22b4U,
  0x3c309bc93c56df90U, 0x3c4c601abcebc280U, 0xb8550afd3c8c1b1bU, 0x3cc2cddf3b87edc3U,
  0x3ce9cb87bcf82620U, 0xbb17eefdbbadd657U, 0x3c8e7237bcacabf8U, 0xbb962f8b3bdd8d83U,
  0x3c1a364b3cbb0a5bU, 0xbc98e114bce34b3fU, 0x3c88b2b63bcc97baU, 0xbc9487873cb79a81U,
  0x3a902701bc8c554bU, 0xbcbefd46bce65016U, 0xbd0005413cdbeb05U, 0x3bfac97e3cdba0cbU,
  0x3c6a62d93cc6ed88U, 0xbc7256783cea167bU, 0xb9feab5a3ccf340aU, 0xbc7e5a3d3c98b32fU,
  0x3c73fdbcbb6ccd1fU, 0xbcacb5233ce5810eU, 0x3cec81a23c12c988U, 0x3bd3b324bcfbf5feU,
  0xba90a27dbcfa7c98U, 0x3b2d826fbbed5d8cU, 0x3c231a03b9c12fdeU, 0x39cd1433bb9a79afU,
  0xbc904b1ebd03ba85U, 0xbd0034e6bb7ea06cU, 0xbc5a99473c8110ebU, 0xbcf1006b3ceb82e6U,
  0x3ce5e6abbcbc003dU, 0xbc89e78dbcdbda39U, 0x3c788d20bbdeb7c6U, 0xbc822402bc9684ceU,
  0x3cd7b24d3c8f6483U, 0xbc35d672bc3ea274U, 0xbd0848633b31c76fU, 0x3b6069ba3b62b137U,
  0xbcd0e752bb93f575U, 0xbc1736763c308e4dU, 0xbc3e10873c8f4166U, 0xbb977a843c8d1584U,
  0xbceda747bce22703U, 0xbcb30c213b2f6413U, 0x3bbc6bda3c9b1cd0U, 0xbcbe2617bc1693e6U,
  0xbc601ef1bc713b38U, 0xb9d86a463c82eeb6U, 0x3c3192343b9a348fU, 0x3b5aa1c5bc0ef51eU,
  0x3ce38b773ca6c962U, 0x3bdc05a43ce5a277U, 0xbcbb6225bc118169U, 0x3b27d9c13b8d5341U,
  0xbbb7208e3c679b5bU, 0x3b13d9193c9b6f05U, 0x3cac9730bc6acf0aU, 0xbcdc7a653c93e74eU,
  0xbb28fc2cbcd9b79cU, 0xbc158f8e3c5b66a5U, 0x3cdb9826bce75aebU, 0x3cdd4aca3ccf9d02U,
  0xbd05babe3c3bc1faU, 0xbc39b88cbcff40bbU, 0x3c7043cabd08646aU, 0x3c9cca7abc3688c8U,
  0x3c24f71ebc280523U, 0x3cacb9443cda7bdeU, 0xbc2b4301bc9623f7U, 0x3c9c40fdbba6509eU,
  0x3cb73bac3cbb22e0U, 0x3c06be70ba8f16edU, 0x3bce3e1e3bfda96cU, 0x3b7f8196bc894aa8U,
  0x3b3e18b23a394f22U, 0xbd069d773cbe5612U, 0xbcda1fa33ccda98aU, 0x3ba077d83c03e128U,
  0x3c3e5c6bbcb901d4U, 0xbaf16417bc2f6426U, 0xbbddaf74bce2d5a1U, 0x3bc0afc9bc42d920U,
  0xbc12c6a33bcce5b3U, 0xbcd14d09bc57a739U, 0x3c725bd1bc8a1127U, 0x3c9679cebb906cd7U,
  0x3c91c50d3cd3904fU, 0xbb7f34bbbbf0f5ecU, 0xbcbc09943c91e383U, 0x3b713234bcf0ffdeU,
  0xbc9ef21dbb1a4f0eU, 0xbcd849653b8eeca4U, 0x3cb2d20ebc78dfb1U, 0x3c3c7d2cbc1da256U,
  0x3b764144bc961acdU, 0xb97b6d303b43c5abU, 0x3c87ffaebc7460c9U, 0x3b71c175bcfa05f3U,
  0x3adf58abbc8bd6e4U, 0x3cda58b6bcb1ad44U, 0xbc159d123c8586c5U, 0xbc9e2141bd0f2454U,
  0x3be437d4bc1e3b57U, 0xbceec46bbae46b31U, 0x3cc9954a3c767112U, 0x3cc78a07bad84b98U,
  0x3c52a2e3bc92cf20U, 0xbc40a0d0bc90f856U, 0xbbb088d43c93b5a6U, 0xbabb45863be3bc56U,
  0xbc304f1b3cae7253U, 0xbcbd13ab3c93ec10U, 0x3c8e16613cb5df8bU, 0xbae470233ca13368U,
  0x3c89109ebcd79cfdU, 0xbc753d9cbcfaaa28U, 0xbd0f4268bc7462d0U, 0xbc0ed50d3cb475e3U,
  0x3c79d46aba3be94aU, 0x3cc233873b9cff95U, 0x3c9bd938bcc5ffd7U, 0xbd0f8b8dbc18a359U,
  0x3c9e14c23c1676abU, 0xbcbbb019bceae90eU, 0x3ba23895bcb524bfU, 0xb804cd2cbc5b69efU,
  0x3c5488ea3c42e93aU, 0x3c0fd74dbd0762a2U, 0xbcc7d8eebc1a8d52U, 0xbc90f04d3b056542U,
  0xbcafdd1f3c9851acU, 0x3b9f150abc43b2d4U, 0xbbb5aa97bc0ef165U, 0x3b94bd1bbcd647aaU,
  0xbca8b5f5bcc77f9eU, 0xbb4af463bccccc4aU, 0x3cb0cc9ebce01f56U, 0xbca02dda3cacc245U,
  0x3cccb621bbbb11ffU, 0xbcd5da35bd12f667U, 0x3caf328f3c75e3c2U, 0xbcd6f667bd10cf02U,
  0xbcf040b3bcb70ee5U, 0x3cb0a547bc5d1d19U, 0xbd04d92dbcbe4ea2U, 0x3c8d6ab7bb84b4ffU,
  0x3addf977bc7f2e5eU, 0xbd082b5d3ccd3071U, 0x3c2798ecbc6d08d8U, 0x3c386b87bc891c0fU,
  0x3bbd04543bc11de9U, 0x3cd0028cbc597aa9U, 0x3c7e9507bc954933U, 0x3b601b6cbcb102f5U,
  0xbbf9188439d4745dU, 0xbcb0b89dbbcf86f2U, 0xbc894debbb187d1eU, 0xbb473e15bc88193fU,
  0x3ade7e923c70e21eU, 0x3c9a422c3c07c2c4U, 0xbb2d8945bd049bb0U, 0x3ccc275cbce6d55aU,
  0xbbe36b033c41f418U, 0x3cc8a320bcf7c316U, 0x3c7e7c6abcf6df01U, 0xbcfc9f0b3c175c10U,
  0xb95f21fa3c8d7194U, 0x3c4f489abc1a1564U, 0x3cd059c0bb792a1eU, 0xbd024175bc02d375U,
  0xbafb0a22bc12b174U, 0xbb5564413b39fde5U, 0x3b1780493b132481U, 0x3cc962d5bc923a47U,
  0xbcd7c9c83c86ee4bU, 0x3c6bafddbc95a6faU, 0x3cac3ce33c44ad9aU, 0xbcae8a173c993cb8U,
  0xbaf3638dbc7ff64aU, 0x3c94a59ebc2451bbU, 0x3bd0d65d3c0852cfU, 0xbc117c3e3ca2c54aU,
  0xbcdb59323b334fd5U, 0x3c561ce8bcdfb335U, 0x3b7b11d5bcc7c7f8U, 0xbc453b17bcb3f9a9U,
  0xbca39c55bc8899c2U, 0xbce358ebbcf0574cU, 0xbc582de13a41c024U, 0xbcc3bcee3c2e59b7U,
  0xbc7af934bc3797a1U, 0x3cbf56e53c01f1e2U, 0x3c9697de3c4df070U, 0xbc514276bc5456c5U,
  0x3cd719a5bcdd2ae0U, 0x3c0d5d0bbc5c167aU, 0xbc1108953cd598d9U, 0x3c805ed43c5fa8eeU,
  0x3bb21cda3c068831U, 0x3c512fc53b7c3262U, 0xbcf4ffb9bc875b53U, 0x3780b080bb469913U,
  0x3c89f5d83c420fdcU, 0xb8fa9e033ceddec5U, 0xbb9650ac3b2ba4baU, 0xbbf54a043c125509U,
  0x3bdb3431bcef0748U, 0x3cee3d78bce73d65U, 0xbc5aec1a3bd72a98U, 0x3cca8b01bb683a38U,
  0x3c461f133c343fe3U, 0xbb1ac80abcdae371U, 0x3bc498893c852b62U, 0x3cce710b3c5357b3U,
  0xbccb71c43c4c8cb7U, 0x3c3fe0c6bcbb2034U, 0xbcd7085b3c82814aU, 0x3aa3b7e5bca8cd27U,
  0x3cd1c7f83a240352U, 0x3bf13cd6bcc2922eU, 0xbbd5e0dc3c753f56U, 0xbc95bdc43bad0e49U,
  0xbba846c13a876682U, 0x3ca0f6fa3b90aa55U, 0xbba8e7b4bca8da11U, 0x3ca4c223bcba4acaU,
  0xbbd6e88cbd113d9cU, 0xbbbcf8173c2016c5U, 0xbc2c097d3ca7d692U, 0x3aa92c023c615db5U,
  0x3c1dbb8fbc8ed8c0U, 0xbc9eb8f03b969807U, 0x3c6727d3bc42ce2cU, 0xbce7303bbcf1b79aU,
  0x3a6211a13af1b541U, 0xbd01d21c3b18460cU, 0xbd0fd458bc4da71fU, 0xbd016da83c817442U,
  0xbcd69e783c152b50U, 0x3c3da521bc82dd41U, 0xbcb806bcbcbbd6c1U, 0x3c9463d8bd0efb1fU,
  0x3c8b7eecbb339e70U, 0x3c4e3b51bc66843eU, 0xbc95f71b3c5ca339U, 0xba818e5dbccaf366U,
  0xbccee03f3b5a8564U, 0xbd0493873beb1a28U, 0xbd1715253c233be2U, 0xbcb11b083bdf0394U,
  0xbd05d49c3c052299U, 0xbbac49d4bb0ce9ecU, 0x3c68301b3cae51ebU, 0x3c79c17bbca1d364U,
  0xbd139843bd15a66fU, 0xbcf6d0923c902df7U, 0xbce5ba293c4eb118U, 0xbcf3cfc3b9cf5db1U,
  0xbb014170bc02007fU, 0x3c4a1204bbe2b801U, 0x3c1dca623b05c314U, 0xbcf026a3bc2c4e18U,
  0xbc172ce53c10d7a6U, 0x3bb6765ebc7e905bU, 0xbb2670f3bca1caa5U, 0xbb71180a3cace60eU,
  0xbd1510293cca1254U, 0xbc09554cbcd3c8b9U, 0xbbb80a07bc9b618fU, 0xbcf9cb023cb48a09U,
  0x3c7ed9bb3cba401eU, 0xbb1f86ba3ca2902aU, 0x3cb4c032bcb6b5b1U, 0x3cb1c5cebca2858bU,
  0xbbc9b326bc6ef91bU, 0xbd0d8551bc432a07U, 0x3c7d78e63c397f58U, 0xbbe61c07bd11c608U,
  0x3cca8d053ca240a4U, 0x3c4fb23a3c4edc85U, 0xbcb746b7bcf68767U, 0xbc29c574bb9a390dU,
  0x3cb652a9bb64cd2eU, 0xbd15a6a33c71ea8cU, 0x3bccc3d13c1b92cbU, 0xbc542f1f3c815ad0U,
  0xbbeac106bcc88c79U, 0xbb933feb3c43e381U, 0x3c02b8fbbb19fbc4U, 0xbbce03653bb2d895U,
  0xbd04b3c5bc72ae3eU, 0x3c0d2e343c916bcfU, 0x3cc3302dbd159ec9U, 0x3bcb8bd13c24ae2dU,
  0x3a1432473cb52884U, 0xbc3940bd3c90009cU, 0x3b61f294bca404d1U, 0x3c3b3c23bd002489U,
  0xbc90c44bbc313085U, 0x3cb19bd5bd1443f7U, 0x3c4e528fbd0bdd4dU, 0x3c1317a7bd17f0fcU,
  0x3c8e9345bd055275U, 0xbcd9d4023c553773U, 0x3c2c0f51bd0dabebU, 0xbcc038c33ca09924U,
  0xbced3031bc021bb6U, 0x3cac828fbcc2328fU, 0x3b9fab973a962977U, 0x3ccb007fbbad075cU,
  0x3b5dc81b3c9e7f64U, 0x3ca06ab0bd0947dcU, 0x3c8db9bbbcbb1118U, 0xbcf66107bd120d83U,
  0xbce3e9373ccd06c2U, 0x3c9fb16cbd0a7b6cU, 0xbc09d2043ca1ec8eU, 0xbc214aa5bd051ae6U,
  0xbc9e78f63cb9aa6fU, 0xba18aa41bcd8f34dU, 0xbcc56c26bc29f441U, 0xbb24341cbc9676d8U,
  0xbcfa5bdbbd01e0faU, 0xbd0caa8db94cfcaeU, 0x3c734051bcf18c72U, 0xbb0302cb3c3b3cadU,
  0x3c601be73c280312U, 0x3b3d116a3c82020fU, 0xbc21cf52bb557e42U, 0xbd019a843c125427U,
  0xbc27d1823ba71a99U, 0xbc5d3cb8bd00420fU, 0x3c57efb3bcbdcc3eU, 0x3c3d410fbba6700dU,
  0xbcdb2156bd0d57bcU, 0x3cad9ca23c4f3a9eU, 0xbc86a421bd035218U, 0xbc55e131bbc97895U,
  0x3c8e4b17bc6e19f1U, 0xbbb262eebc80f223U, 0x3c8190963a94c563U, 0xbcef75f0bc7d10edU,
  0xbca310f7bc9433d2U, 0xbca47330bc043fa3U, 0x3ca32fb3bd0c0edcU, 0x3c6ff396bd090e64U,
  0xbca0aec6bb9f8b1aU, 0xbc1e5573ba99de4bU, 0xbc1d6c993ae3513cU, 0xbaa7d65ebcaa429aU,
  0x3c99b05d3a93992cU, 0x3c524ffbbc332a2fU, 0x3c653ee1bcfba1fdU, 0xbbbea4d93c7de49fU,
  0x3b9025073c521fbfU, 0x3aff03293c9c8baaU, 0x3c419dcfbd09d705U, 0x3b8ae32fbb7abdb9U,
  0xbb8bc0eb3ca35203U, 0xbcf4479abca4d5f3U, 0x3b063d973b980b53U, 0xbbf5c474bd0167a3U,
  0xbd0933adbc17f076U, 0xbc70c6e3bc88a982U, 0xbbb12453bcf18158U, 0x3c21c1f4bc9e1415U,
  0x3cbf0ca9bc81cf74U, 0x3caeea063cb06b83U, 0x3b213b05bce54badU, 0xbcce596dbbcf8b5aU,
  0x3ca3bd873c77f546U, 0xbc7a0f88baefc2ceU, 0x3c8bf20ebc09aacfU, 0x3b9f9a943ca557fcU,
  0xbbf0c13ebbde50c5U, 0xbd13a22e3cac8f1dU, 0x3c3645c73c89fa3dU, 0xbc8ddb45bb772aaeU,
  0x3c5270d53cd4af28U, 0x3aea0e16bd006ebfU, 0xbc8aecb43c67b540U, 0xbd04d2243c3c2399U,
  0xbd014364bd028dcbU, 0x3cc39dae3bd344d4U, 0x3c9a71093cad885eU, 0xbd0650bd3b524e98U,
  0x3c77fc1d3cc5ab95U, 0x3c2a65173c548597U, 0xbcefe039bd0ceae1U, 0xbd04af9b3c9e942cU,
  0x3ae9bc7bbc12e980U, 0xbc485d4bbcc9aeb8U, 0x3cc1abccbcb5bcc0U, 0xbaf4982dbbcc0cacU,
  0x3c837ccdbca9f729U, 0x3b97c14d3b6d26f8U, 0xbc67fa6bbc0d02c2U, 0xbce97e60bc17d5acU,
  0xbc822eafbcd76d0bU, 0xbca9d0dd3ca5f6afU, 0xbc35ba2e3cb88b6cU, 0x3c71055a3bf23e2bU,
  0xbce0650d3cd9911cU, 0xbd0b8e173ba939d1U, 0xbb81dd0fbd0838e1U, 0x3cccb5a63bc12196U,
  0xb85b0ba0bc4c9460U, 0xbd156c853c86b99aU, 0xbc9c74d2bc817548U, 0x3bc5030c3cbd229bU,
  0xbbebb420bc6c15eaU, 0xbc645054bd0f5e65U, 0x3c9209a03bbc64abU, 0x3c5947acbcf26979U,
  0x3b5e46873c7aa398U, 0xbcfc8552bd00e6a2U, 0xbb49296f3cbe46e0U, 0xbc3629613c0e5797U,
  0x3b9fcc5abc814897U, 0xbc437d9abae00599U, 0xbd0e54e5bc314380U, 0x3bbacd373cad7989U,
  0x3b420cd3bcbc2c15U, 0xbcb7eda43c6a0513U, 0x3c5554b53c27eaf7U, 0xbcb2b31d3c0755a9U,
  0xbcc3fe293cd190b5U, 0x3c4c8df0bc1349d4U, 0xbcb5d6e83ccb0af6U, 0xbcc37ca0bc178a77U,
  0xbcafd5133c30d93aU, 0xbbe05cad3c0811aaU, 0xbbd52f0ebb42d45cU, 0x3b806dc8bba37366U,
  0xbcd6cc8f3c1758d6U, 0xbc408f783c0ccb85U, 0xbbe352b53ca51a9dU, 0xbc36113ebc1170b5U,
  0xbcceea65bd06e2f7U, 0x3c6609043b801ff6U, 0x3c59b474bc1f59ddU, 0xbb746644bcd40514U,
  0x3cc76b05bce4d57cU, 0x3c9b629cbcb002c3U, 0x3bb66facbc8dccc3U, 0xbd02d94cbcdda7deU,
  0x3b77b3533c3044e7U, 0xbad06714bbf0dfe2U, 0x3cbf926abcc76ef9U, 0xbbf8e163bc4db925U,
  0xba8ca2fc3cb3c732U, 0x3c36bd103cb187eeU, 0xbcd0d73d3c96fc9eU, 0xbccbbb62bc4795e5U,
  0xbcaf37fdbc90234fU, 0x3c15dc09bce13d4cU, 0xba8c8d32bc94ae65U, 0xbc5835d93ca0ca16U,
  0xbcce7019bcc9956aU, 0xbd07b8bebc66c952U, 0xba7517df3bc0d7bfU, 0x3c642d25bca350fcU,
  0x3c351057bcaf8cfdU, 0x3b38709ebcc2b752U, 0x3c8df5483c52da20U, 0xbcbee4713cd69522U,
  0x3c80e3143ccb92dfU, 0x3cc778e2bc82a97eU, 0xbade7ddc3c8bcc5fU, 0xbc260eb53cb3c510U,
  0xbd05f8dbbb3a51ebU, 0xbcddc27d3c9de7f2U, 0xbc31ca4bbc31abe9U, 0x3cdc19733c3a9d7eU,
  0x3c20ddd1bb33e182U, 0xbb98f4bb3c72b249U, 0xbc9094a63c9aa0feU, 0xbd0c4611bcb03d14U,
  0x3bdf7db7bc836cb3U, 0x3c76c3ffbcb6eb0dU, 0x3b8f7925bc914a52U, 0x3cdc7078bd0cdc88U,
  0x3c306745bcbbcca5U, 0x3ccc3612bcd01de5U, 0x3c8a2667bcfcf3bcU, 0xbb83e691bb952e8fU,
  0xbc908cd13c3a3f62U, 0x3c88bafa3be6f208U, 0x3c825b8fbaa7a275U, 0xbce17f8e3c92f372U,
  0x3c1720b33c273706U, 0xbc24b721bc4ce0efU, 0xbd0a4edcbc9e25a0U, 0xbcad09be3b245b6aU,
  0xbcaa4c21bb57ca33U, 0xbc327745bba9010cU, 0x3c70e4f3bc6141d1U, 0x3983ed063cdcaf2cU,
  0x3bfe379abc99036dU, 0xbc9df678bca4f762U, 0xbce0b34ab9138525U, 0xbcf19c8dbcbe214fU,
  0xbccace44bc909441U, 0xb8997f1a3cbe5d7cU, 0xbbb939f73cc14f41U, 0xbce94a78bcf39b57U,
  0xbcba8e86bbf08d64U, 0xbcb1d6823ca490dbU, 0x3c4be8c5bcb9f2e1U, 0xbcb675b2bc3adf09U,
  0x3ca0ae0c3ccc6c31U, 0x3c0c2a85bca4755bU, 0x3c223cd53c4d2c49U, 0x3c1d07c83c7d378cU,
  0xbbcecb90bcf86143U, 0x3b4a7a0e3cdae372U, 0x3c3d8a533b53cc29U, 0xbc1b6bbe3ce49df0U,
  0xbc6c4afdbc4e32d1U, 0x3cd2a48a3b9cec82U, 0x3cc3cba6bbc0d9e8U, 0x3c62c8dd3bad1373U,
  0x3a5e11af3cd3f0bdU, 0xbba860c63ad0ee5eU, 0xbc23068abd0d1941U, 0xbceca3353c6b6c8aU,
  0x3ca28088bcd89f41U, 0x3c37bea3bcab8c23U, 0x3cb2f47c3c9d27b8U, 0xbcd16085bb263698U,
  0x3cd003cfbce16a35U, 0xbc9c5524bce3e3b7U, 0xbbbc0fcc3ad3bc92U, 0xbd045831bcf38f73U,
  0xbc9ab4a5bc62eb5eU, 0x38d7895abcd5014dU, 0x3c3c8536bca020f5U, 0xbd069a8d3c7d1024U,
  0x3c9b58c63c9d52cfU, 0xbac3e383bc76934cU, 0xbbad85323cc09008U, 0xbbb42cee3b9ad77dU,
  0xbcd2874a3c1a8469U, 0x3ba66032bca173f0U, 0xbc95dcc23c8ed207U, 0xbcc31aeb3ca7267eU,
  0x3c9469fdbb50d9b1U, 0xbc7a5b1fbc96c1adU, 0x3c6cc654bc0efdaaU, 0xbbbf2e153bfed34bU,
  0xba8e0790bd0b8d71U, 0xbc98e89f3c9b202fU, 0x3b8853803caa0144U, 0x3cf3ad6dbb144497U,
  0xbc6ed61d3ca643c7U, 0x3cc68c23bc82892bU, 0xbc1767553ce6be76U, 0xbcaa5e5d3cd01999U,
  0xbb528c9bbb87b95aU, 0x3c5fd024bcf01bdeU, 0x3c48d4b23bdd9290U, 0xbc8e98c6bc418b89U,
  0xbccd0a09bbf9b2baU, 0xbb03b4213b887c08U, 0x3c92d847bcbee73eU, 0xbc0ea58f3c6eed29U,
  0x3c86053cbc6b481bU, 0x3bbe92e23b3393dfU, 0x3cd514633c3f1635U, 0xbcc7d24a3bfb2a5aU,
  0xbc9a56a03cf13a07U, 0xbca5ecac39de8395U, 0x3c1fd865bcb966b1U, 0xbcadd53fbced2325U,
  0xbc936d873b294b1cU, 0xbb782f65bbf5e1e1U, 0x3c9dadd43ce6584eU, 0xbcf347b1bceba594U,
  0x3c884fc2bbcf132fU, 0x3ce536e5bce86b47U, 0x3c5d76bfbbb5b2a9U, 0x3cceb70ebc6affe1U,
  0x3c8efdd5bc40147bU, 0x3cf5c91fbce95e07U, 0xbb0dec15bc611091U, 0xbcd5b7e83c623fbbU,
  0x3c69e7973c9c7cb7U, 0xbc30a7913cd18b4cU, 0xbc5b66963cde9d94U, 0x3cbd4b02bbc9d366U,
  0x3b859f2cbccbcff4U, 0x3c1722e13c8ade67U, 0x3d02871bbcc626c1U, 0xbcf41be53a219519U,
  0x3ce7e7ab3b84f367U, 0xbcaff2a33cb15691U, 0x3c842d33bcbd2683U, 0x3ca97e613c1800d7U,
  0xbc3f9068bcf1a55eU, 0xbce2ea33bc89b000U, 0x3c9463fcbc7a1961U, 0x3b1fa09b3c40787cU,
  0xbce649273cab8ea5U, 0xbc46640dbc90bdf7U, 0x3c331db6bb292fc4U, 0x3b86eff33ccdedfdU,
  0x3cbdfca53c175762U, 0x3ce8b5b8bccb5e2dU, 0x3c10cd503bfb4c3fU, 0x3ba56288bccccb30U,
  0x3b21542c3c660445U, 0x3c8d5b7a3d0e37e8U, 0x3cd10cf33d0a00eaU, 0x3c2ef4ff3cd348eaU,
  0x3b503858bcd9962bU, 0x3cdd9dfe3bc7cb9dU, 0xbc052a173c0c025aU, 0x3d06cea93b7973c2U,
  0xbb8bef9e3c44da74U, 0x3a3ad4e9bca74195U, 0x3cb927fdbc823531U, 0x3c7bb6f63d071f8dU,
  0xbc817d183c3155adU, 0x3cb1a87b3cb18e36U, 0x3beb9179bb690edfU, 0x3d071d363ca2ef5dU,
  0x3cefeb653d0b84a8U, 0x3c6c5210bc4523c1U, 0xbbec11133c2e2042U, 0x3c8ab19cbc7c0358U,
  0x3ce1fc9abc61c574U, 0x3c7282c9bbbbf82aU, 0x3ce537fcbae2e3f4U, 0x3b9afc4dbccbd831U,
  0x3a84ff05bc10b859U, 0x3c697751bcdc6b19U, 0xbc21be523ced928bU, 0xbca1c65c3c95afacU,
  0xbc60d918bbe7b85dU, 0xbcd2fd22bc9d8034U, 0xbcb36bbb3c99d5b0U, 0xbcc0662cbce663b9U,
  0x3ca99e52bc9e6fdcU, 0x3c1224373b8f9dfeU, 0xbc4a4c123c8797d2U, 0x3c81d3763b5f0f04U,
  0x3cf845cf3cbcdfe2U, 0xbcbef180bc55c97aU, 0xbcea55a4bcb5bf3bU, 0x3c9e1d083c0e8a8cU,
  0xbcc24814bb4c0879U, 0xbcc0b06cbcf6ddbaU, 0xbc9bbc83bcaabe31U, 0x3ccf40c33c778ffbU,
  0xb9a5c178bb8d83eaU, 0x3cf2c67ebc90e6c4U, 0x3cdf9621bc474e07U, 0x3c711a133b338fd2U,
  0x3bf91365bbab4ef7U, 0x3cbf6dea3a8e9947U, 0x3cced557bced738dU, 0xbbfff5d13c8be447U,
  0xbce023f53ce0ca22U, 0xbcee02a53cfb47c8U, 0xbab8682b3ce01164U, 0x3c87aea3bbf0facdU,
  0x3c6f1f163cc96f2eU, 0x3c88e7cdbc89a19aU, 0x3c0a0f01bc503031U, 0x3b95d177bc7e3b7eU,
  0x3c706a05bcd65b66U, 0xbcbf68ccbc95bdf6U, 0x3cdd983c3bdc31a2U, 0xbc9a3c3c3cba63eaU,
  0xbccb69e4bbc19e69U, 0xbcd8d4783cd67059U, 0xbc058738bcd8eb79U, 0x3bd1ed00bc329899U,
  0xbcefbd023ce1c378U, 0x3cf1e3843c19fd7fU, 0xbcbd71f9ba034786U, 0x3c635e363ce33534U,
  0xbca71b4f3ce9034fU, 0x3bd17e0bbc4d1a9dU, 0xbce8c35bbcc1ed0fU, 0xbc3444d73ce20ae2U,
  0x3c99d8753c41dda6U, 0x3c924a863c456819U, 0x3c0168febd08746fU, 0xbd01f2b73bc6f52dU,
  0xbc9d51983c780a34U, 0xbcaf3768bcb91f6aU, 0xbca458b7ba9f53b5U, 0x3c417e26bc6ed8aaU,
  0xbcaf1b53bbd626c0U, 0xbc5ecdbd3ce96530U, 0xbc7be3d6bc92754eU, 0x3cc02b513cbd0e91U,
  0x3ca426783a4dad0cU, 0x3c92b36e3b46040bU, 0xbcee7eef3ae15830U, 0x3c9119f33ce22850U,
  0xbcb608d73c257866U, 0xbc0e47c5bc4edaf5U, 0x3cb195ff3babedc4U, 0xbb50886bbce850e0U,
  0x3cbd853cb9b6ace2U, 0x3c91193cbc518cb9U, 0xbac8dc21bc08025bU, 0xbc91e489bd07c324U,
  0xbc262cac3cd05040U, 0xbca2a75aba29284aU, 0xbca865e73bbf4809U, 0xbb562f5bbccd3c12U,
  0x3b3d637e3cc06582U, 0xbcb0c96f3c34c0abU, 0xbbafc18f3a28afe0U, 0xba9a9bdd3c96a446U,
  0x3c4e1c3b3cdf6e75U, 0xbcbb833f3d083a0fU, 0xbcdf1a2abc1b8739U, 0xbc04f1723bc7ea95U,
  0xbcd86bc6bbd7890cU, 0xbc9099cf3bd61759U, 0xbabb427abc2150deU, 0x3ce3e980bcd9cd2dU,
  0xbb7d24c7bc4634caU, 0xbbaf8f45bbaa8041U, 0xbc73a7203ca9dc3cU, 0xba457702bc1c8c16U,
  0x3d03b2dbbbc0fe7eU, 0xbcd34f7bbc42d6c6U, 0x3cdd126c3cb0f494U, 0x3a359d1b3c0c0d8dU,
  0xbccfa715bcc33e3aU, 0x3a20aa283bdc6397U, 0x3d0212823ca13aeeU, 0x3d065f753ccb8f3eU,
  0xbc7f5b30bc47d2f6U, 0x39dc87c4bab130c9U, 0xbcaa53c43ce628e8U, 0x3bf601ecbbed49fdU,
  0xbc5d70b3bc35e692U, 0x3caaadd13c88073eU, 0x3d062e7d3d0bccbaU, 0x3c97cbf63bf61af0U,
  0x3a2e75a3bc4b78abU, 0x3ce251ae3d044e99U, 0xbb39b82dbca1a816U, 0xba991c8fbc5123a9U,
  0xbcc21c61bc237e63U, 0x3d00eb3a3c539c31U, 0xbcde6983bcb6e6f0U, 0xbc6d6953bcc69c8eU,
  0xbc3042e93b1c0a00U, 0xbbe83ce13c3e8146U, 0x38da74393c14477cU, 0xbcc123ba3ac50e94U,
  0x3c8c345e3d08e2c4U, 0xbc797bccbcce9aeaU, 0x3c8cf0abbc819dc1U, 0xbae02dbcbc26f136U,
  0xbc518f293a8d822aU, 0x3b1c9d5cbc904df6U, 0x3cb7e9333d0af511U, 0xbbf7f3e5bc96264eU,
  0xbc100198bbccb132U, 0xbca2b330bcd99c20U, 0x3c0547383caf589aU, 0xbcb3a30d3ca7a578U,
  0xbcf4acf3bcc6493bU, 0xbc0037d63cd4bd33U, 0xbc4ecd5ebb785482U, 0x3c33110dbcc1c29bU,
  0x3cc93e7b3c9fcb48U, 0xbbb50aa8bd004d49U, 0x3bfb63543c67f5c5U, 0x3ca30a293c66d7b6U,
  0xbb9082c6bc1b9309U, 0x3cc81fea3c1abbd9U, 0xbbf201d03b425f79U, 0xbc45ee13bbac77e3U,
  0xbd02cc05bcaec737U, 0x3cdf1bee3ab78bbcU, 0x3cdf4ff23989b946U, 0xbc620e9dbcf47865U,
  0xbccd3a4cbbef07e3U, 0xbca5928abcb92b42U, 0xbc39e92e3ccb1705U, 0xbbb1d0debbd9b37dU,
  0x3d00a2ba3c5bccebU, 0xbca9bf4cbcbf62e0U, 0x3cc77273bb9774caU, 0x3c9139143cc5458cU,
  0x3cbf41f53baa5149U, 0x3b41c777bc976436U, 0xbc81fe933cbcb0ffU, 0x3cf1318c3bb90482U,
  0x3d0d933e3d113ed3U, 0xbc572e26bc5ca11bU, 0xbcd65417bb92582dU, 0x3c2b61e43d023306U,
  0x3d0224da3c12e376U, 0xbc5f7dbc3cc70db6U, 0x3d025d6abc41cc15U, 0x3d10d606ba9ebf77U,
  0x3c61018eba9b4cf5U, 0x3d0df8b5bc87a68dU, 0xbc0c62323c18936cU, 0xbc503c1f3c6fca86U,
  0xbc077698bb196d12U, 0xb9ce76d939ce1b4dU, 0x3d1192323c9c06f4U, 0x3b89264b39b66e40U,
  0xbb5f156c3c95ae88U, 0x3a53c9a7ba12243fU, 0xbc43a33a3c583eb7U, 0x3c9a6eaebb96e2b5U,
  0x3af63fd3ba45a38eU, 0x3cc49091bbc5b723U, 0x3c99b7113c80b6f8U, 0xbb858e52bbfdf527U,
  0x3bb6ae3dbac15fe9U, 0x3c12c16f3cc6c8d7U, 0x3ba1d4c63c1447fdU, 0x3cdf22fc3cec5367U,
  0xb9d8df3dbcacebcaU, 0x3c988a753c7cf9c2U, 0xb8c703db3ce5a0beU, 0xbcce39e93cfafb84U,
  0xbc97a7b6bc9026ecU, 0x3bcf1c533cd7b00cU, 0x3be243cc3c81137eU, 0x3c9633bf3cdf3289U,
  0xbbfd347fbc5bc740U, 0xbc82b6623c9fd5a9U, 0x3cf6a67c3d1dcf24U, 0xbc66a4afbc9024e4U,
  0x3cac1d723cb55eabU, 0x3cd6741b3d143877U, 0x3ba56142bc623e9fU, 0x3ca0bbf93d27488bU,
  0x3c21bd163d0dc338U, 0x3a7323fc3c83f809U, 0xbc5885b73c2f4bd0U, 0xbc34a030bc258bc8U,
  0x3b8ab84abc77304fU, 0xbbcef6b03c473dc9U, 0xbc452aeb3cebf3dbU, 0xbb92aa0f3b9266d2U,
  0x3c9fb82e3cf868d4U, 0x3c3225743d05bd84U, 0xbc1533f3bbeed298U, 0x3be6a3df3d2665d0U,
  0x3c06cdb73c162cceU, 0x3bba052ebb312311U, 0xbbb90d953d26a474U, 0x3c9cc0613cb598bdU,
  0xbc4fc8a7bc990a69U, 0xbc260c0d3c967804U, 0xbb963acf3d0d636eU, 0x3cd193d8bc705596U,
  0x3cd8a21a3ce4d9cdU, 0xbc72f13dbc62a5b3U, 0xbc075fc4bcabc9e6U, 0xbb9c17f53d247e09U,
  0x3c69ce133d0ba230U, 0xbc9d6b59bbfd8b4aU, 0xbc434f7b3b4645dbU, 0x3d0729d7ba3822fdU,
  0x3cb3a0913bd24317U, 0x3c8a388a3baff587U, 0x3c6d7e093c096921U, 0x3c35b34d3bc20222U,
  0x3c169bc4ba31aea4U, 0x3d2380683c6308d7U, 0x3c096f8dbcac0318U, 0x3bb144943cc44629U,
  0x3b0431573ca57c9dU, 0x3bc299773b8f6ab9U, 0xba0e7652bc87bcd6U, 0x3cd7b957bb0c27e5U,
  0xbbf3a98cbca9a9f4U, 0x3cb584003c8d3e24U, 0xbc8b8fc1bcfa14d6U, 0xbcf563b2bb5e40b7U,
  0xb96943a3bcb5487dU, 0x3c935f4f3bd65a5eU, 0x3cb6c579bcda4934U, 0xbc568c74bbc90dbfU,
  0x3cb1794f3c37758fU, 0x3c9e0d943ba4bca6U, 0xbc917ce23a9b8bc8U, 0xbc9a0fbbbc821bedU,
  0xbc9c3cda3cdbeed1U, 0xbcad36863ce63a4fU, 0x3cacbef43c64df3eU, 0x3cda41d53c42a7ccU,
  0xbcbe8369bce53777U, 0xbcb06fac3cf3a5beU, 0x3c4a5e8e3b3a95d6U, 0x3c4b41133cd86d4cU,
  0x3b9c9e55bcfca35fU, 0xbcf9efbcbc686f02U, 0xbc91d2d13c9b5fe9U, 0x3bdb02dabc4554a2U,
  0xbd1022eebcb6302bU, 0xbd0a12913c3e763aU, 0xbd0f88093ca1586bU, 0x3bbdb1a4bca16147U,
  0xbcd6afdebbed59a1U, 0x3c0d11bfbc7fcb74U, 0xbccd3d8bbca834a0U, 0xbcf43b2cbbd20835U,
  0xbc752eb6bc23cc0dU, 0xbcfcfa8dbc853740U, 0xbbe7a136bd039948U, 0xbc7c5a4f3c934dd8U,
  0x3b0b2b95bc72f400U, 0xbc68e115bab90699U, 0x3ca6bbb1bc85155bU, 0xbb51ff783bc431acU,
  0xbd0a8ea83b2fcd03U, 0x3cb5a8c5bd0132d5U, 0xbd11ddc43c1b009aU, 0xbbad3fde3c34e0d8U,
  0xbcffbf26ba91fb83U, 0xbd044778bbf41d8aU, 0xbcab48f1bac48f48U, 0xb916278ebbf266d4U,
  0xbc604d72bcf6fef0U, 0xba320498bc587f16U, 0xbca3b8a03a8d6d98U, 0x3b894055bbd9500fU,
  0xbc8c46bd3b9f05baU, 0xbc650c3bbbd4c688U, 0xbb954e13bca3eab4U, 0xbcfc0b10bce1cd50U,
  0x3ba4ed9fbc37bd0fU, 0xbcd1ae14bd09beb5U, 0x3caaf8763bac8bcfU, 0xbcf173e8bb96693dU,
  0x3ca557c73bbae2b2U, 0xbc63f1b13c95e2c8U, 0x3cd57c94bcaff951U, 0x3cc1c9e9bb0e9da5U,
  0x3ca96a233b9c5e8dU, 0xbc58c5b0baf789dcU, 0x3c39c1c93cb4a1d6U, 0xbccd9efabcc1e87cU,
  0xbce17cf63c5ad257U, 0xbcd0a0283c95362eU, 0x3cb6a08bbcd03e20U, 0xbd124286bcc21bd2U,
  0xbb8d83c63ccda70cU, 0xbd0b3ecabc92bf41U, 0xbc9467e0bcb7a568U, 0xbc975f5fba946354U,
  0xbc815b03bc2bc4c3U, 0xbc7dfd9dbc709206U, 0x3b802a0ebc41708dU, 0x3b4e94e83c9678a7U,
  0xbcc257a0bc388192U, 0xbccaaae4bc3b12afU, 0xbc9d6ce5bcab454bU, 0x3cc7f606bbcdf3baU,
  0x3c83a27bbcd7ec11U, 0x3bc76b3f3bac6d9bU, 0xbcd496f6bc4c5001U, 0x3ccc04f93b2dd137U,
  0xbce30b05bbf35b72U, 0xbc9df853bd018d3eU, 0xbc209a9fbcbf6d60U, 0x3c84df0abc5e593bU,
  0x3cacc339bceae0a3U, 0x3bd05210bcace92fU, 0x38aebc9bbd0b359cU, 0x3b5a4bcebcdfe465U,
  0xbd1b5903bccf5575U, 0x3c05af7abd16a878U, 0x3ca57b573abe786cU, 0x3b85139ebd026d8cU,
  0xbba1cab63c901f92U, 0xbcec32ea3bfd98ddU, 0xbbb623643ca292b0U, 0xbc23747bbd20ddfcU,
  0x3c78da09bbf7ff19U, 0xbcf2ab65bd12fb3dU, 0xbc884bec3c6ce8f8U, 0x3cab3da9bd03965fU,
  0xbb4ae380bc3057ceU, 0xbc007447bd0b49a9U, 0xbcc43860bd16982eU, 0x3c10f910ba6a641eU,
  0x3c97cdf83c94c2b8U, 0xbc52db6fbc88181aU, 0xbd18e45fbca15b4aU, 0xbca205d03bc2204cU,
  0xbbfe7c65bcd6ce03U, 0x3cbea30dbd221e53U, 0xbc0740b8bca89c4bU, 0xbc8c51213bc4edc2U,
  0x3c82bb2bbc02993eU, 0x3c91bf66bb2a1906U, 0x3ca65594bd26b198U, 0x3b87b52f3c8492f6U,
  0xbd0d3c72bcc4c8d2U, 0xbc90301f3c2cdf59U, 0xbd201152bbd79e3fU, 0x3c9ce37cbb8b8955U,
  0xbc632e4bbc4a225dU, 0xbd0e5e393c45258fU, 0x3c5600f23bc9498aU, 0x3c7ee015bce641abU,
  0xbbd46d343bf2e43dU, 0x3caedc33bcd1936fU, 0x3c8b7c03bc0bba14U, 0xbb876aa1bccc3343U,
  0xbcedc4693cb968f1U, 0xbbe3f2e13c6db5b2U, 0xbd091c38bd030025U, 0xbca63c503bc72014U,
  0xbcef76c43b6a3392U, 0xbcb0cc2ebc69428eU, 0x3cc60ff23c0104cdU, 0xbd0a77e2bcf22ad1U,
  0x3bd4d514bc90c070U, 0x3b7df6e53c522f87U, 0xbd17a42d3acf87d8U, 0x3bed1d48bc8a9dc2U,
  0xbd0ca6a5bcf2508cU, 0xbd14cb7bbd08bd13U, 0x3b31dca1bd18464cU, 0xbc48676fbd1592d2U,
  0xbc8d5166baa82bbfU, 0xbd14026fbcb8f39eU, 0xbc4346efbceba113U, 0x3ca8fabe3cc15b54U,
  0xbcc461efbba1e68cU, 0xbca7c1abb974e004U, 0x3c38ac5ebd0b935cU, 0x3c828b41bc1792d5U,
  0xba93ba1fbcab9941U, 0xbc14a9b93cb0396aU, 0xbc998476bcb770bcU, 0xbbbb10f13b923973U,
  0x3c9b88623c0e54c4U, 0x3c2c52ec3cb58f87U, 0x3ba405e53cac2b7bU, 0x3bac4ac2bc3efed6U,
  0x3b9f4a403c89c162U, 0x3c124f7b3c4df1c7U, 0x3bbf8086bc69a4beU, 0xbc0e7b1c3c91300eU,
  0xbba45d67bae3936fU, 0xbbec3857bcba4f19U, 0xbca4b405bc32c61dU, 0xbc10bb1c3c33e9dcU,
  0xbd137380bbf844abU, 0x3c929240b92dd659U, 0x3cba034f3b6e0ed2U, 0xbc74e7f9bcd4002fU,
  0xbc9a6e13bc4388bfU, 0xb999ed2fbbe4fb14U, 0x3c3f8261bcbaf201U, 0x3bab4529bc51b01aU,
  0x3cb5db33bbbccec7U, 0xbcdc0c25bc9497dfU, 0x3cc1dbfe3c225e63U, 0x3bed7e343c0d6eaaU,
  0x3ca97b063c9440deU, 0xbb2bd79abba875beU, 0x3c582966bcaba0ceU, 0xbc5a6c79bc400932U,
  0xbd0e8e5dbc7abd5eU, 0x3ca49873bbcff7f0U, 0xbc21a6ef396f3e69U, 0xbcf9e5283b854ef6U,
  0x3c7c66bcbc5a472cU, 0x3c561a073b81c4a7U, 0x3cbd9b193c40213eU, 0x3c2af83c3c821797U,
  0x3c2bd49cbba89438U, 0x3cc434cbb9becaa2U, 0xbc7440dbbce0c39fU, 0x3caa61f4ba65d07eU,
  0xbcdcf761ba88aab1U, 0x3badb470bcbdaf2eU, 0x3b6b6a29bc3c802eU, 0xbcff0f4e3c52ac05U,
  0xbc37b43fbca65942U, 0x3ba2863abd074aa9U, 0xbd04e8bcbb27ee8aU, 0xbc95fc5fbb660b23U,
  0xbb985025bc809a1dU, 0xbbadda053cc1adeaU, 0x3c9a3885bc31bbf3U, 0x3cb37070bac5e518U,
  0xbc3f5eccbba1ba38U, 0x3c00aeac3c5f4cdfU, 0xbcee1a96bcf395b7U, 0xbcca9ed2bcc133b7U,
  0x3c17a8823c49b1b1U, 0xbcc243b7bcf07074U, 0xbc871ea43b2c5bedU, 0xbc3f00e23b947282U,
  0x3af1ba623c6c18baU, 0xbcec4c38baa68d51U, 0xbb0508ba3ca30793U, 0x3c8b7b033c1493bdU,
  0xbcf9c24cbd101070U, 0xbd09ff83bcfaf9a0U, 0xbcc8d04ebcd63b5fU, 0xbc7d740ab9089185U,
  0xbd0a7211bd079ce6U, 0xbc887c6cbadbb853U, 0xbc60de5abcf86199U, 0xbcae3424bbdc01edU,
  0x3be0c92fbc9a7816U, 0x3888b27fbc7b25baU, 0xbc643cc53c0413d7U, 0xbc931b9bbcff9961U,
  0xbc96413ebcecb967U, 0x3c8a2a7e3b16284aU, 0xbcc02222bd031e59U, 0xbcceaf623c944270U,
  0xb9deedab3cbecf45U, 0xbb9df7d1bb01f4b5U, 0x3cc958023cb8b2a1U, 0xbd03bc4bbc92f5d0U,
  0xbc4663d3bcbf0206U, 0xbcb0ce18bd09ba68U, 0xbcbd22a53bd81f42U, 0xbcf6988e3ccdec04U,
  0x3cd2363d3aca6139U, 0xbd036f09bc15c0e1U, 0xbc2ff8733becea47U, 0x3ccded7f3980a195U,
  0x3c7e5433bc83f788U, 0xbd0800bdbcb1916fU, 0xbc83a03abc4b5aa8U, 0xbcda5d5fbc9e02f8U,
  0x3c0fc2c7bbf595aaU, 0x3cdc076e3c4254dbU, 0x3bc1de9fbaa07f62U, 0xbcf2ba5abc9e8bb2U,
  0xbc9791dabc056f51U, 0x3cb9a973bc49e2eeU, 0xbc5ddf09bc96b662U, 0xbc9a26a9bc941d21U,
  0xbc8d7d023cc24d4bU, 0xbc15916a3c206358U, 0x3b0663a0bcd679eaU, 0xbc3009863bf41182U,
  0xbc37ce0bbcede5d9U, 0xbcf859f03c7e788bU, 0x3c8b7b723c89b234U, 0xbcfa2539bcc96556U,
  0xbb68643a3cb27163U, 0x3cade6a7bd0142baU, 0xbc36336c3b8ea4c0U, 0xbc6c1c4cba9cda82U,
  0x3ce57f48bcd4478bU, 0x3c55335d3c89b861U, 0xbc67573fbcb99d9bU, 0x3cca375dbaa422a8U,
  0xbc4756203ac13e1eU, 0xbbfa89f7bcf9fea6U, 0xbc6b61d33cc17558U, 0xbcbfa16abcb286abU,
  0x3aa87effbb261c19U, 0x3ccb80bc3c6c1b3bU, 0xbbf526d7bcc35322U, 0xbcbeb579bcedafcbU,
  0x3c372981bc03fbafU, 0x3cab74df3c13ecd1U, 0x3caf1994bb5ce551U, 0x3cb74ece3c5521fcU,
  0xbceeac4dbba66e6bU, 0x3b81ad96bd02afa8U, 0xbcdb08733ca66318U, 0x3c1e46f4bcb58cbdU,
  0x3cd76fbf3c9ab115U, 0x3848d9423c0fd591U, 0xbbcdbf7cbcc3edc5U, 0xbceb16863ba32b31U,
  0xbcb89754bc6d3524U, 0xbbe9e97ebca3f0daU, 0x3c9a75a43cad2093U, 0x3c9bce69bced4374U,
  0xbd03dec6bceec788U, 0xbcc87bcdbaf5ace1U, 0x3c7af741bc725351U, 0xbc4b29a53bb0e78aU,
  0x3c535a57bcd11082U, 0xbc127baf3c8423bdU, 0x3bc1f54d3cbffa48U, 0xbc29271ebcd82997U,
  0x3c6a01bf3b1becd9U, 0xbc0534b93c1f1405U, 0xbc5b1ac3bcbebcc2U, 0xbce9c058bd0b47aeU,
  0xbc2bb1d9bba8f7bcU, 0x3bee369fbcaaca59U, 0xbaa4cf93baa67771U, 0xbb440c183c18d6dfU,
  0x3bc22c93bccba996U, 0x3c5e1b1e3cac9e39U, 0x3c3d9ca33cd09874U, 0xbc7fbb803c22d2a4U,
  0xbd0a2d26bc871e8bU, 0x3cc150bf3ce4ca9eU, 0xbc2676db3cb4d299U, 0x3cad0379bc6ff47dU,
  0xbcb0619fbcd4ff76U, 0xbbcdef8abc4bda6eU, 0xbd0a41e7bcc49bcaU, 0x3c41c2d2bcf093ccU,
  0xbb1e22d23c8354e5U, 0x3c21bebc3cbc022bU, 0x3c43c0953c5a0e4cU, 0x3c49d9203ca839c9U,
  0x3c99fc943c196069U, 0x3cd34b61bc4c276cU, 0x3cdd7f46bc585538U, 0x3b8ed38cbc5cf5d0U,
  0xbcd77e453c53cc68U, 0x3c29df18bcc38cedU, 0x3b8c2b1dbca29895U, 0x3ccfcb153c72510eU,
  0x3bc6b2543b8a1fb0U, 0x3c87c54e3cceca89U, 0x3c87f8eebd0e6069U, 0x3cd0d86dbc26353cU,
  0x3c0fb135bc602ab1U, 0xbca3e30cbce4b5ebU, 0x3b588037bcb6d4ecU, 0xbcdc142d3c4df11fU,
  0xbcc67454bc92f060U, 0x3cd14f373be066e7U, 0x3ca52eba3c5be8abU, 0xbc9183213c7a98bcU,
  0xbcefde6ebc9dd344U, 0xbccb46973be17cc7U, 0xbd053f1e3bd04a64U, 0xbc9fd10b3cdd247dU,
  0x3c78f0353bdb6736U, 0xbc2da6ed3c5502e6U, 0xbc7c70f7bd080535U, 0xbc5dbda83c260821U,
  0x3c8d34b1bcabe0a9U, 0x3cdca5c4bd03f255U, 0xb9af5db73cbce020U, 0xbc39c2ef3c5d7affU,
  0x3ca2e3343b532bcdU, 0x3c2ef7dcbcdf696fU, 0x3c063468bcc7b846U, 0xbbd45772bce134b1U,
  0x3bf5017b3cc3f3f0U, 0xbcff2fd33b2a9288U, 0xbc1649f03adbfabfU, 0x3c964809b8edd62fU,
  0x3ab619c23bff1878U, 0xbc963bdabb98bff7U, 0xbccf0139ba87a81dU, 0xbc259646bcadcc1bU,
  0x3bbd52303b80641cU, 0xbcddf7edbba197ebU, 0xbc86d8133c8e8dc0U, 0x3c2f5e2fbc41376aU,
  0xbcaa3ea23ca3c462U, 0x3c3c9ca8bcd9c66fU, 0x3c3bfc053ca791c1U, 0x3b53786f3c4b6b8fU,
  0xbcf53c85bd06cd15U, 0xbbdff8383ccdd80cU, 0x3a63a81b3cd12d52U, 0xbd10cf66bc908c82U,
  0xbcd1601dbcc5318bU, 0xbcc881353cb81b3cU, 0xbc35f1c2bc62fc44U, 0xbb53cfa4bcf706a7U,
  0x3c64e6d23c6a1ae3U, 0x3c1832c4bcb06ab5U, 0xbd04d227bc89d132U, 0xbc622a0e3c3dc349U,
  0xbd182ad63c40b9ccU, 0xbd188094bd009983U, 0xbc81173b3cb10154U, 0xbccd853b3c819964U,
  0x3c0722f63b8acb32U, 0xbd0db8d7bcf71ea6U, 0x3cb5cbe8bc3670b8U, 0x3ca77be8bc8c2180U,
  0xbc8686babcecd25bU, 0xbced7fafbc4bec03U, 0xbaa44e9bbccbe5e6U, 0x3c2705e23c181787U,
  0xbc8bda69bd03c49fU, 0x3c2dbe593c267c3eU, 0xbd026e47bcfb9f3dU, 0xbc8754333b717fe8U,
  0x3c1ea1b2bc3d6273U, 0xbc5ed8a23c1465a4U, 0xbce1c417bd086c8aU, 0xbceb30573b3faed4U,
  0xbd0be2f5bc947ebfU, 0x3c3ad6433c8412b7U, 0xbc920c30bc94e77cU, 0xbcd073a3bc2160d3U,
  0xbcb87f1cbbbc7919U, 0xbc7722dfbc445c90U, 0x3ca2b1993c3df751U, 0xbc9b0a2fbc03422bU,
  0x3c66cde13bc8bf9dU, 0xbce448e6bc2f2882U, 0x3c9f604fbcc41953U, 0xbd01ec1a3c16b17aU,
  0xbcb0ab19bd17bfd8U, 0xbbf9fa04bc9f630dU, 0xbd0d1140bc9d8b1cU, 0xbcd43542bc022d00U,
  0x3c97ab8abc1e7054U, 0xbceb45ff3bbfbe17U, 0xbcaa7b62bca6574fU, 0xbc4eb2e33c0e61faU,
  0x3a3ff2cfbd2032cdU, 0xbcdb3ce93ac31fcbU, 0xbc3b62b9bd0a6400U, 0x3b428958bcfcc92cU,
  0xbcf2cb3fbbff4053U, 0xbce439ad3c909cd4U, 0xbb67dac33c637cc0U, 0xbcde6e573c659024U,
  0xbc64c087bcbf3d8aU, 0xbcc413ed3c73b952U, 0xbceaf9d6bb20be25U, 0xbc1c5179bd07d669U,
  0xbc8749f7bbd5cbf2U, 0xbceee49ebd1a0861U, 0xbccf668bbbf97075U, 0xbbd63ebcbc2dbe23U,
  0x3bf87b6cbcb91bcdU, 0xbc89fe5dbbb314caU, 0x3b27646ebce7276eU, 0xbcbb9eeabc80d3e8U,
  0xbc14955d3c18901eU, 0xbc3f7d69bcc242e7U, 0x3b0f2f3e3c02090eU, 0xbc6a77dabbb9d36eU,
  0xbd1920f1bd06a2caU, 0xbc1c6fafbb6387e6U, 0x3c824c0a3c8f02d7U, 0x3cae20ab3c947b2dU,
  0xbc0929d63c942bc4U, 0x3ca18b8bbca8a14bU, 0xbd1e20443c88d190U, 0xbd166bcc3c576e6aU,
  0xbca15ca4baf3eeb7U, 0x3c4c4779bd12f522U, 0x3957cf7abd0ebd49U, 0x3abb9ac93c37c1f2U,
  0xbcbef55abce75fe1U, 0xbce0093d3b932abaU, 0xbac2bf7eb9a41e46U, 0x3c110e843c142b68U,
  0xbc8420353c2c00f1U, 0xbd1ba40abbfe7f7bU, 0xbcf4e646bc6a691aU, 0x3cc10d8d3b194ce8U,
  0x3be671443ca8beb8U, 0xbd164f0dbc05c78cU, 0xbc7dc712bcd78ca8U, 0x3c6cdfa7bc9d3d3aU,
  0xbd146a033cb2492eU, 0x3cc0b82a3bdb02d7U, 0xbb06e473bcf7f017U, 0xbb8120ce3c6d0db2U,
  0xbcee9ab53a175542U, 0xbb8644b7bc41185aU, 0xbcd785a33c447eb0U, 0x3be174cbbc843bc8U,
  0x3a8b2721bad37fdaU, 0x3c1b25d9bd015c69U, 0xbc2c863ebd15697cU, 0x3c086bed3be1010fU,
  0xbb033c95bc36786aU, 0x3c4180a53c6bbf55U, 0x3b9c0879bc7b5b5bU, 0xbcef5b1dbcc0ca95U,
  0x3be0dc87bc9726f6U, 0xbc9b1ee43c00ff7cU, 0x3c43782bbc0c196cU, 0x3cac37443c7b6c20U,
  0xbce005d43bd2cf00U, 0xbbe16cb53cb8d375U, 0x3cac9f92bca9434dU, 0xbc83ed75bc4384ffU,
  0x3b7c851d3cb7521eU, 0xbae86bd53c6dec02U, 0xbc9e8db2bd00a504U, 0x3b0535883c7d3a50U,
  0xbbb885debc5b4473U, 0xbd0643b3bb45afacU, 0x3cd3f74d3b5f1624U, 0xbcd15462bca703d5U,
  0xbd0f8459bcbbfea8U, 0x3cd04bfb3c73691cU, 0x3c6fe63dbca62042U, 0xbcc906313c8e43d5U,
  0xbd11d0c43c55e7a6U, 0xbd0c5a39bc33f438U, 0x3a2fde893c8e1dfeU, 0x3bc205ba3c246755U,
  0xbd0f394dbd0557afU, 0xbb0f82933cc01d56U, 0xbc02e7a6bbedc699U, 0xbc37196539f2a0e7U,
  0x3cbac62ebca6a5e4U, 0xbcb991c83bdd8448U, 0xbab0b1de3b4d32c3U, 0xbbcbb681bbcdcec8U,
  0xbc808052bc80050eU, 0xbcc7e41f3c90cf86U, 0xbc07a251bc87ea8cU, 0xbcb882bcbc22e518U,
  0x3bb6ff98bca09213U, 0xbc96120c3bef7845U, 0x3b6b595dbcf3fa85U, 0x3c87007abc6a9fa3U,
  0x3c030da03acff185U, 0x3c98edd53c4601beU, 0xbb6127d9bccaaee4U, 0x3c7ff3b93b91f8efU,
  0x3ab7dbc8bcfd9be1U, 0x3cafca30bc37aba7U, 0xbd187443bc2fd836U, 0xbb3ab6ebbc2e8db9U,
  0xbcab36863c4c8197U, 0xb9c59a30bbbcc4ecU, 0x3cbe31a9bcd2c8abU, 0xbc916fe2bce17779U,
  0x3c4e6767bd142dfeU, 0x3c6a1be3bc575789U, 0x3c493914bb1d8ed7U, 0x3c1e789e3be608c1U,
  0xbc160e35bcfdd549U, 0xbaa1f186bc8a9b22U, 0xbc6d51503bc4b1f2U, 0x3c5fabef3b7e59c9U,
  0xbc5e6d3cbd0afec6U, 0xbb72f9533cb6c2cdU, 0xbaed6e733c164445U, 0xbc957729bcdac4c5U,
  0xbc9a06c0bc915c34U, 0xbd067227bba223ecU, 0x3cc87241bc2077ceU, 0xbc7b7cf93c7bfda0U,
  0xbae57d3c3cbd95e4U, 0x3b928e1f3c9393ecU, 0xbcb263ebbc661c31U, 0xbc270870bce504a0U,
  0xba72036cbc624996U, 0xbcf802473c0a2449U, 0x3ca4979d3b1b4c71U, 0xbce4e7fe3bd6c830U,
  0xbc50a088bc3fa1ebU, 0xbcea0617bc447fd5U, 0xbcf56970bccbc2f8U, 0x3c4a0034bc892114U,
  0xbc6a2c9cbc9abcc8U, 0x3c545df6bbcb5c16U, 0xbc809b9fbc980b86U, 0x3cde00713c4251c1U,
  0xbd07d02abcce2abfU, 0xbb9af69f3c13f8faU, 0x3cddee75bbf20d8bU, 0x3cc619f43b36b8c8U,
  0xbc951b4ebc76d244U, 0xbce251eebab4a1b2U, 0x3ba1b7bcbc788defU, 0xba57325abbccad4eU,
  0x3cda704f3cc2780dU, 0xbc97b5033bd62f7bU, 0xbccdd0e13c28eeb7U, 0xbc9d8515bca20986U,
  0xbd0800753c77ca88U, 0xbcaccad4bc336ac9U, 0x3c4b928bbd088239U, 0xbba597723b9f7d09U,
  0x3cb06df8bcdf7b8dU, 0x3bdae26fbbd338a4U, 0xbc839dc3bd0acdcfU, 0x3caea548bcd4d70cU,
  0xbcc1c3a7bbd0dad6U, 0xbc139179bc70d807U, 0xbcc69f163a7dd49eU, 0xbce57347bbb8c590U,
  0x3c20f152bc696f32U, 0x3ccee1f6bab0bd7fU, 0xbc6897ab3c9418caU, 0x3cc6f1a7bb03718bU,
  0x3ceddcba3cee3fa7U, 0x3c3ef3e13cf45ad9U, 0xbd00b9973caa5c58U, 0x3b908d22bcbce38aU,
  0x3cdec99d3b75f644U, 0x3cc4f16cbc04287cU, 0xbce8f98cbc1cdb18U, 0xbc1f55e0bc8ef5e8U,
  0x3c40c7c03c8183acU, 0xbcc6c8f73bf71c21U, 0x3c2e6f6e3ce112d4U, 0xbcd07a4e3bfa93f8U,
  0x3c5e0c3e3b56b4d5U, 0xbb94fd913c501c77U, 0xbc2bac3cbcc1fd2cU, 0x3bc9ea07bc35682eU,
  0x3d043bea3c70754cU, 0x3cee36743bb8d186U, 0xbc2f71673c4c208fU, 0x3d0b9b01bcca1b51U,
  0x3c13f09d3b86a4eaU, 0xbcb9e820bb933f8bU, 0x3c772e97bb5d52c4U, 0x3b064505bc6a8eedU,
  0xbcdbff9fbbcdda66U, 0xbca53bbc3cae038cU, 0x3ba617273c5925daU, 0x3cca7ef43bfee2a1U,
  0x3cb987ccbc31635eU, 0x3d0cbe66bcd8acd0U, 0x3ca74be93cbc02a9U, 0xbcd84ea53d0b7f01U,
  0x3cda1785bcad640fU, 0xbc94c25b3c4c5669U, 0x3c04e5813ca9457cU, 0x3d07b8223b0cff67U,
  0xbcb2cfc8bbd11cedU, 0x3ce383593c1bdc89U, 0x3c875e70bc95f1c4U, 0xbbefed84bcae0f71U,
  0xbc7d86b5bcc089f2U, 0x3d12fc9b3c6833cbU, 0xbc15167c3d0db80aU, 0xbb8cd97f3cdfd7ddU,
  0xbc15c2d4bc7db1deU, 0xbb754c0c3c3328c5U, 0xbca38743bbb417d5U, 0x3c89069cbcba6075U,
  0xbb62df9e3c3d9913U, 0xbb40409e3ceb0025U, 0x3bf901d73d04aa51U, 0x3d17a1e8bacdacb1U,
  0xbb393bdbbcd1d1a6U, 0x3c1f4bc9b998e0e9U, 0xbca688d6bcc06becU, 0x3b88b2373ae234a1U,
  0xbb8635293c4252e1U, 0x3ce162543cb6f091U, 0x3cbc42983c94fc18U, 0x3cb2cd683cfd01afU,
  0xbc4bf5723c582f60U, 0x3d0810613d006534U, 0x3d156a6b3c8d171dU, 0x3d17a51b3d12b66bU,
  0x3d0bc0913ccbc4eeU, 0x3d009849bc922899U, 0x3c68ac3a3d13cf10U, 0x3d173810bc9c1192U,
  0xbc1d28d0bc3cc621U, 0xbc3a6e9b3c7be197U, 0x3d120de53ca1f247U, 0x3d145bbebcc95a93U,
  0x3d0c29d3bcd03143U, 0x3c717a8e3ce241d9U, 0xba65c7113ce90964U, 0x3c65686d3d0fd705U,
  0xb9bec4df3bc708c1U, 0x3b784203bc7dc871U, 0x3cf83b553d05da7cU, 0xbc423f6cbcb5fb87U,
  0xbcb27a54bbc7da0bU, 0xbb0d68fe3c1c46f0U, 0x3c819758bc864fd2U, 0x3d0430943cba9bb4U,
  0x3c9dcacb3d16053dU, 0x3cf04f063c0fe0d7U, 0xb72bc806bb7a645bU, 0x3bd595333b64c31fU,
  0x3b2bb77e3bccb89bU, 0x3cec868d3d0329a0U, 0x3bfa5aed3b2a0513U, 0x3ca43ac73c7dfba9U,
  0x3d139f4f3c7835b4U, 0x3cf048acbc6698aaU, 0xbca44ea03b985039U, 0xbcd51af03cd30055U,
  0x3c406e7e3cdbd9e3U, 0x3ce6ed013c8f0298U, 0xbc159771bccb43fbU, 0x3c6c25d5bb8b8c18U,
  0xbb97901dbc1dd9bcU, 0xbca496403cfc2afdU, 0xbcb3978c3c7b9b40U, 0xbc14e7ec3b80fcf5U,
  0xbabf8a283d19427fU, 0x3c57be773ce1a3ceU, 0x3d192881bc6bca21U, 0xbc8f490f3cb007acU,
  0xbc572016bba6896eU, 0x3c8222c7bca403efU, 0xbcc86a763c28d9e9U, 0x3ba013dd3cf67575U,
  0xbb6f2cdfbcbcfb3eU, 0x3ce8a6313c1b8af4U, 0x3cb27ee7bc5a13d4U, 0xbc27ebf4bcb14a3fU,
  0x3b661b9abc2423acU, 0xbbfb311b3bd82109U, 0x3c26e2843c9220fcU, 0xbc58d480bbf244b5U,
  0xbca3b15a3cfd08ccU, 0xbc8a3d833c723fc1U, 0x3c6098373bc868a9U, 0xbc9e9d843c42c884U,
  0x3ce087dbbbe9e194U, 0xbc51bafe3d0adb84U, 0x3cda62b13cf0d1dfU, 0x3c9a6fb6bb79a2daU,
  0x3ccfa05a3a45ae9eU, 0x3b6b5a2bbbf0c7ddU, 0x3c77afe3bbaf14d3U, 0x3cddb15fbb1e911fU,
  0x3ca8fa453c7931d1U, 0xbbf440bc3c3bd4c6U, 0xbcc486e1bb893785U, 0xbbc934e33ca5a90fU,
  0xbb855b63bc4fa094U, 0xbbc435e93c928fbfU, 0xbcb1b32c3d02854eU, 0x3cfb2be23c9b2071U,
  0x3cf437e73c879a60U, 0x3c9080d9bc6e362aU, 0x3cfc5bf13b634e93U, 0x3ae2165f3d0b207bU,
  0x3b880ca5bc2b464dU, 0xbcb46075bc48d43dU, 0x3d058a9fbca41878U, 0x3c4b61073c454661U,
  0x3c6225003d068869U, 0xbcc059523b18671cU, 0xbc98c2123c30db6cU, 0xbc8d35c9bc9672c3U,
  0xbb6217223ca52592U, 0xbb26a725bb8093c2U, 0x3c48bf733ca43950U, 0xbc89082e3b5d48d0U,
  0xbad7f4cdbc994fd1U, 0x3cbf264e389b393bU, 0x3d0c2e963c5a6316U, 0x3b322425bc8ce6aeU,
  0xbb896e16bc15bc6aU, 0x3cf033263cf2275dU, 0x3bb92311bbbf25d1U, 0x3cfb42c9bc4d5674U,
  0xbc652be63d0ec66bU, 0xbc3b4600bcb821b7U, 0xbb4543ef3a283007U, 0x3d1094423c2a53b5U,
  0x3c1a30df3c6907bdU, 0xba79d2c93af22bc7U, 0x3d0e336f3c917358U, 0x3d029bc4b94042ddU,
  0x3c8d041b3afb3a4cU, 0x3d1119433b917501U, 0xba9f49f23cf132ddU, 0x3ced42a4bbdeeee0U,
  0x3cec589f3b2e0780U, 0x3cbb444f3ce0bd1bU, 0x3c45941f3cdb24bfU, 0x3d127f0a3bf153edU,
  0xbc809f46bbfdc65cU, 0xbc5ada51bbae9b0bU, 0x3c1363d53b84b9a9U, 0xbc8cbd023c173fb3U,
  0x3b9aa2a6bc456eadU, 0xbca99dbb3cdff15aU, 0x3caea6213c932df3U, 0xbaaa4b79bbdca3b3U,
  0xbc93e3de3cf3908dU, 0x3cc16456bc6daea0U, 0xbc5c19463cb986c3U, 0x3cb9edfa3c51254aU,
  0xbc0cbcbbbc3634ccU, 0x3cc4275bbcb38c08U, 0x3d1b7948bbd7a967U, 0x3cae5d383d17be28U,
  0xbc12f7dc3c97c9b6U, 0x3d10b1df3d0a04bcU, 0x3d03f219bc61c5d5U, 0x3c76ffbfbc566a56U,
  0x3d066904bc35a030U, 0x3ceda7853b31525dU, 0xbc4cd4fbbc933b29U, 0x3d252fdd39cb6eb4U,
  0x3d00fdecbc194bddU, 0x3cf88aeebb565233U, 0x3cbed5ce3d0d4572U, 0x3c9e1c1a3ca3df9fU,
  0x3c509a253b789cc7U, 0xbbf9efbd3d1c4664U, 0x3cba569f3d1384f8U, 0x3c8172ff3cfa18e1U,
  0xbc8491253b7b63e0U, 0x3ce94c43bc8746d8U, 0xbcbaa7093d0a76caU, 0x3ce240f93cfd7702U,
  0xbc46b3633c8c10dcU, 0xbc97dcddba56ddf9U, 0xbbfca017bc827b50U, 0x3c1eb3773cdfd306U,
  0xbc891d6f3949764fU, 0x3c4517383cd78346U, 0x3d12caa93b89445bU, 0x3c92e14ebbbe5c05U,
  0x3ca2a27bbc45b5f8U, 0x3d13ff423d172ef8U, 0x3a72c463bc6c046aU, 0x3c838e81bc98bd62U,
  0xbc9ea260bbf659beU, 0x3bbabcef3b9d2a40U, 0x3d0cbd103d058184U, 0x3cf6a02b3d1cb0faU,
  0x3cb2cc183b5dc088U, 0xbbf2e8c63bec0992U, 0xbc8220453cb6ea8cU, 0x3caca1c8bc6651ecU,
  0x3d06ff553c84db49U, 0x3cd56a5bbc1213c2U, 0x3c6bfaae3ca41ec6U, 0xbc135f163d04d87aU,
  0xbc003cd53d0e40d6U, 0x3996612f3c40d4c1U, 0x3c9591be3cecf74cU, 0x3d2323d6bcac9f70U,
  0x3c05d2283cdd3239U, 0xbc62f0b7bc3ea0f3U, 0xbc631d9a3b470e8dU, 0xb9e4d8d53a9e4c83U,
  0x3cebd6073cff0287U, 0x3c0118b0bba90135U, 0xbc7339953c697442U, 0x3b796fd53c405956U,
  0xba9ef31cbc5f27c7U, 0x3c0f9d663cd9cb30U, 0x3d091320bbdc6cc6U, 0x3d2b34a13cf6bdb3U,
  0x3bc2564cbb9229daU, 0x3cb899bdbb989935U, 0x3cdbd4eb3b43138dU, 0x3bd1d9febc0052ddU,
  0x3c3642723b9ab1edU, 0xbc921aed3c1a7f2bU, 0xbc04e82d3c2515c0U, 0x3aaf0378bbb53116U,
  0xbb36a549bc86de42U, 0xbc791211bc1debfbU, 0x3affa4be3ccfdef2U, 0x3ccbbd173c02d773U,
  0x3c90a4213ccf7f93U, 0xbbe518efbc99d39fU, 0x3ce16bcfbb1b5a27U, 0x3cbb4564bbc43fb6U,
  0x3d091b8a3cb0cd00U, 0x3bf4db253d0c5ca4U, 0x3d0ea2bebc0793a6U, 0xbc3fc75d3d1ea90aU,
  0x3c9da2743af80630U, 0x3d0af6883c132894U, 0x3cf9ad413ce1893bU, 0x3c474f56bc8b4759U,
  0x3aeef0dbbc1c3f7eU, 0x3d08b4653cfd0c53U, 0xbc937d863c9e1ad5U, 0xbc9179a63bd6024fU,
  0xbbb89b3ebc4a41d5U, 0x3d09762f3c4ae883U, 0x3bbda5dfbc9a549fU, 0x3cca77ef3b75a73aU,
  0x3c0e0a103b658c91U, 0x3d10cff53d0e3929U, 0x3cea67fb3cc2e8a8U, 0x3c64d5313b2a1187U,
  0x3cd761123bd84dcfU, 0xbafbc3913cc26c3cU, 0xbc3215febb126cf2U, 0xbc8d5c0fbb72507aU,
  0x3c426601bafce2c1U, 0xbc47398f3c9a93c9U, 0xbbd97ef9bb18d23bU, 0x3cdaf4a13cd534f8U,
  0x3d156eca3c923ca8U, 0xbcacbfa2bcab1076U, 0xbc48f435bbc86224U, 0x3be280113c8eaa5fU,
  0x3c0c16e03cb2f0b9U, 0xbcbc6dde3cb38822U, 0x3c54ecf33cec175aU, 0x3b75d81abcabb4d0U,
  0x3be58dce3a582ab7U, 0xbbb2721f3c80788aU, 0x3ccf16d9b92af8b0U, 0xbc4025f83c181997U,
  0xbcac0e893d065e42U, 0xbc92285a3ca067caU, 0x3cc4af4abc18d69aU, 0x3cc77e2bbbaccf92U,
  0x3cd95648bcb7c2acU, 0x3a97c0c1bc6f5543U, 0xbb88b75d3a8ca54bU, 0x3cfb2a08baeb71d3U,
  0x3cd4299b3cef7270U, 0xbb6dbb183cc13770U, 0x3c304b58ba72a1c4U, 0xbb64c2c13d008a8fU,
  0x3d0e8e173c959faaU, 0x3cb236bcbc8cad04U, 0xbc137be73c4ea6feU, 0xbc92f8ef3cb9373cU,
  0x3cb1c331b911fa9dU, 0x3cfb0a643d17c261U, 0xbc0eebef3bac0ce8U, 0x3cbe999a3b312048U,
  0x3d155b78bc8b14b8U, 0x3bcaa231bccaa191U, 0x3bf1fe123b836dd7U, 0x3be9d2da3c8eafd7U,
  0xbafba29cbc809ac1U, 0xbcbf0fa93cda2d54U, 0x3c87ce573cfcd2f9U, 0xbbd71420bb26e666U,
  0x3897501f3c51741dU, 0xbc980ebcba3bd9b3U, 0xbc5180a73bb16425U, 0x3c81eba83d0cd7fbU,
  0xbba53f983cd28dbfU, 0xbbfbe8f33cb93f10U, 0xbbd2d21d3bcf0f8eU, 0xbcaf384abc3a0e8cU,
  0x3cd84e5e3bc72ed2U, 0xbb8308a7bbeb0b13U, 0xbc49e601bc3b8185U, 0x3d0c4931bcaa8f9dU,
  0xbc9bac473cf90ba9U, 0x3d0c7bcb3cb50aecU, 0xbccb3da13bef260eU, 0x3cdb547bbcd1aedcU,
  0xbc5ab4d33c46d649U, 0xbc1531acbca0eb78U, 0xbcc4f2453ca300f0U, 0x3cb0060c3cb026f4U,
  0xbcb1e39e3cb3eeccU, 0xbc1e50d53c51b945U, 0x3be026a33b972d68U, 0x3c89b2663cdc497fU,
  0x3c50721239c7cd9cU, 0xbc0ba2f5bc1dc7baU, 0x3cd9ab233c7e16b7U, 0x3d031630bbd10c06U,
  0xbb600039bcb965e1U, 0x3c5cafcf3cf84f12U, 0x3d03e1eb3c367d28U, 0x3b8ec121bba2eb3fU,
  0xbc90ab0ebc93f459U, 0x3ba163203d08ccd1U, 0x3d076d573ca2f16cU, 0xba0577553c65be4dU,
  0xbc6646553b787e7aU, 0xbc69fc253c078481U, 0xbc8f3d023cbb995aU, 0xbc8c13d9bcbf4733U,
  0xb9f2a22a3c8661d8U, 0x3b89088cbc6b7263U, 0xba3cd43cbc026ea0U, 0x3ac55c98bcbcc306U,
  0x3cf5bd373cc1e044U, 0x3cd9709cbcaf6044U, 0xbc7cb8a1bc605a6aU, 0x3cc560973c6ea27dU,
  0x3cb9b245bc84cbf3U, 0xbc06287d3c7b59c0U, 0x3bc520e3b90d56b3U, 0x3aee4da3bccc5012U,
  0x3cffec763d0a2c19U, 0x3c8669ba3bad8c2eU, 0xbb07469dbc8ff21eU, 0xbc18780bbbe1626cU,
  0xbb9ea3f7bc82371cU, 0x3ba8fec7bc2cd37aU, 0x3c4f74663cf8389bU, 0x3d0bea193d0f15f4U,
  0x3d049150bc40758eU, 0x3cc31b69bcbf83b2U, 0xbbad1dfe3ccb5635U, 0xbcbd1cb63caaee7eU,
  0xbcce4c7fbc2f2047U, 0x3c623059bc8fe1b8U, 0x3cb80ce8bcd7386bU, 0x3cc467aabb735b23U,
  0x3c6e37593c916f50U, 0xbc075d2abb477d99U, 0x3c0900fcbcb472acU, 0x3cf0c0b2bca136e3U,
  0x3c8bbfd1bcc62958U, 0x3bbd3d31bba04900U, 0xbca4cf3d3c9ac2d6U, 0x3caf16073cb51c87U,
  0xbc8d50c83d117a42U, 0x3d184d173c6d2f33U, 0x3ca1c6bd3ba56b6dU, 0x3d05f4d23c2494e1U,
  0xbc144c66ba5afc07U, 0x3b9701703b18f25fU, 0x3bd2f2eebc217816U, 0x3c227da8bbc2e0baU,
  0x3ce9b1fe3c9214fbU, 0x3c7a7e303cb7cd5fU, 0x3d101894bca50d5aU, 0x3d076630bc8c7514U,
  0x3b8398ab3c029772U, 0xbc0a60a2bc8729f1U, 0x3c956b66bbd37f51U, 0xbc9acae43ccad6d9U,
  0x3d068249bc4fbdbeU, 0x3d1b8f0e3c1723d6U, 0xbc3502ccbbb276aaU, 0x3d17934e3bbc5d75U,
  0xb91b87ee3d01f921U, 0xbbc0af823cd1c625U, 0xbb96a21c3c838ddbU, 0xbc6d87dcba967811U,
  0xbc5a22143cf12814U, 0x3cf6759e3cc60fceU, 0x3d20e7bb3bdb025dU, 0xbc08a50bbab4038eU,
  0x3caddd9a3c976d96U, 0x3c8ec6d239d2d247U, 0x3c0fa0dcba7d7eeeU, 0x3cd1d2533caa11a6U,
  0x3ce4210d3cc66048U, 0x3cebe2673a4aaf1bU, 0x3cc1b6623b2361abU, 0x3cd37bd43d1cb2faU,
  0x3c993d1c3c181823U, 0x3d0b1feebcb08f2cU, 0xbbff0a553d1aa2b1U, 0xbb7e72643c1aecc7U,
  0x3cdf0f81bb95fd55U, 0x3bafc5103c9fb8efU, 0x3d0b57e73c9ff999U, 0x3c7b21cc3c969c86U,
  0xbbf5f9de3b185b23U, 0x3d2009f23d0605f3U, 0xbc4409913c3063b3U, 0x3c90c9d0bc334f8dU,
  0x3ca803803d0fd032U, 0x3cb4fa3ebbed13a4U, 0x3c230e523c5b5667U, 0xbb383e72baddafb1U,
  0x3ac212edbbad6600U, 0x3ca6a6313b5b310fU, 0x3cf96e8d3ca3e8e1U, 0x3b7a59533cb123e6U,
  0x3cde588dbaa57cacU, 0xbc36dcb1bbcda6cbU, 0x3d18cf21bb95d632U, 0xbb22670e3c07c186U,
  0xbc7844ac3c77b47aU, 0xbc3c0c23bb047ecaU, 0x3a9539e13d15e789U, 0xbc10f2403d1c9ba2U,
  0x3cb0fceb3c87f7c4U, 0x3cbfff6c3c89181fU, 0xbbd20cb63bffd7d6U, 0xbc23c58d3d05b9b5U,
  0x3cd5f47ebcaae82dU, 0x3b07f0573cbcf4eaU, 0xbc1b2d353cf00696U, 0x3b88039ab96089f8U,
  0xbc68e9183ca751aaU, 0x3d05b8d03d17384eU, 0x3d12fe91bc1ff950U, 0xbc185d23bb10ef6cU,
  0x3b234fd03cd5fdeeU, 0xbbb8736b3c07e1f4U, 0x3c1560af3ced14b5U, 0x3bb0dacc3b3dde9bU,
  0x3d078ebb39f071b8U, 0xbc51eff63b9026ccU, 0x3c54294abbf0f800U, 0xbbfb834f3c35e17aU,
  0x389a80163b6a9e63U, 0xbbae15383ceea24aU, 0x3b7d6976bca07ac6U, 0x3d13feb63d249968U,
  0x3d06612e3c76731dU, 0x3cd2f0fd3d220201U, 0x3c8fd782bc394a66U, 0x3d043faebc59a90fU,
  0xbc6fe696bb8a9fa3U, 0x3d28c2a7bb849251U, 0x3ba8747f3cf6a845U, 0xbbe352da3baef3b8U,
  0xbc6638c03c1c8d68U, 0x3d194d293cbd2145U, 0x3d025f913c9cce1dU, 0x3d0219d23c969667U,
  0x3ac370ab3cf6699eU, 0x3d089efa3c9f259dU, 0x3c8384d13cb78841U, 0x3c066203babe4ba6U,
  0xbb9875a93d0896eeU, 0x39d4b910bbe4878eU, 0xbc9fbb523cf18bb5U, 0x3d0cb8d63ba9e731U,
  0xbca4ad24bb958c77U, 0xbc311409bc846b34U, 0x3ca0860a3befed98U, 0xbc6cf2653d1a2371U,
  0x3d0237a63d16f392U, 0x3c23fe76bc6435d9U, 0xbc24f5b0bc921027U, 0x3d256176bc399582U,
  0x3ca1dc723d211785U, 0xbbbb568b3d124994U, 0xbca95bc4bbe3cc29U, 0x3cd474fb3961896aU,
  0x3d044cc2bc169ea3U, 0xbc825ebebb9047cbU, 0xbc5b9c52bcbe4ba5U, 0x3b258e143c302918U,
  0xbba8fdf53cf738efU, 0x3cdd95e13ba1dbcdU, 0xbc4c1e4a3d1332c6U, 0x3d0755063baec003U,
  0x3c16b7093c2641f1U, 0x3d1b64223ccae4baU, 0x3d06ddb8bc04a984U, 0xbbaff1543c710812U,
  0x3bcbd9f33d00b268U, 0x3d0589f73ccc0ef6U, 0x3c668d2abc30de03U, 0xbc2b07743cbd13fbU,
  0xbcb0ce303c95e468U, 0x3cb1d2323d01ced9U, 0x3c84f80e3bdc8916U, 0x3cef83393b28b968U,
  0x3cb0532abb620140U, 0x3d212cd63bedaca8U, 0x3c8904b93ce1005bU, 0x3c14674e3cd9f602U,
  0xbc34d9f03cecb62aU, 0x3d0e70f83d1ff634U, 0xbc6e8e653d12ca8aU, 0x3c51da593d006277U,
  0xbc9d263dbb1cb2c7U, 0xbcc07a62bb363c39U, 0x3c9e8edf3c9c84e4U, 0x3ced40c33c4dfd99U,
  0x39f3efe33bb3ce33U, 0xbc7809943b3cadf4U, 0xbca7ca7e3d08c30aU, 0xbc8ebe7b3ccad878U,
  0x3d162180bc92dd4eU, 0x3d0b1dc0ba9a4ccdU, 0xbc9ba5f0bc704d8bU, 0xbbd022f7bbc433bcU,
  0x3bfb47473beea16cU, 0x3c2a73b5bb2892c8U, 0x3c0c2aa63b6180f1U, 0x3b9b400e3c3e4094U,
  0x3a6522d03b506dfbU, 0x3d107c09bc4e3a04U, 0xbc84ef0bbca0d04bU, 0xbcbafe993c5d4f45U,
  0x3d14a74b3d151d38U, 0x3af0bd8f3d17919aU, 0xbbf032e53c83547eU, 0x3c5a8fda3c8ca038U,
  0x3cdc71193b84af07U, 0x3c88f5fcbcb6a26cU, 0x3c54e4513cc3820dU, 0xbc8e47febcb56226U,
  0xbca4fea8bca1c03cU, 0xbc9662edba1ed6c6U, 0xbc8837babbca5cdaU, 0x3c5472f5ba21d23fU,
  0x3be4d1c5bc52f162U, 0x3c84a9063af10af2U, 0x3bde312d3b2a5271U, 0x3d0a5b2abc72880eU,
  0x3cb80d7b3caefaf9U, 0x3bde26c93c95eddcU, 0x3b5314913a8472ddU, 0x3cc8cc6dbc8b7bb0U,
  0x3b06b296bc8a39c8U, 0x3cf516cbbc5d10fbU, 0xbbbf1be33d2543caU, 0x3cd4eee73c52e4b5U,
  0x3a3c24e13d1f643aU, 0xbc39c1633d0e5cddU, 0xb941d01b3ce3568dU, 0x3c3faabd3c65309fU,
  0x3cbe95cc3bd8e8eeU, 0xbc3682ebbc97a413U, 0xbbac58cb3cca6f59U, 0x3d0634253c92972eU,
  0xbca2791a3d0cd435U, 0xbc6537f1bba6cc95U, 0x3c98558c3d12a818U, 0x3b85c096bc49d7abU,
  0xbc0cf8c5bc59ee76U, 0x3a016d3ebc2adf64U, 0xbc1eed083d17e8faU, 0x3d1a702abc3d781cU,
  0x3d0b3dde3d0df2d7U, 0x3b966b283caba084U, 0x3baa94d73cbabd90U, 0x3d04b3423ba3bacdU,
  0xbabe1d463cf1dd5dU, 0xbc9eb10e3ce2b293U, 0x3adb5e323c89c6d6U, 0xbb68a4ae3cf172a9U,
  0x3c6c276ebb113bb2U, 0xbb17eefabc99dd04U, 0x3c0709e53d23ee06U, 0x3c90f8183d152be0U,
  0x3d0ce2c7bbd7406fU, 0xbc472e2e3c9da62bU, 0xbc4e20713d094529U, 0x3c3bfd5f3c999d24U,
  0x3d036ac83c1d2829U, 0x3ced14963cbad737U, 0x3c8481933ce574b5U, 0xbc600d00bc8bb3c3U,
  0xbc78d226bc8b29ecU, 0x3cf798683d02694bU, 0x3c692f513c5bd8cfU, 0x3c0616c83ce97695U,
  0x3cbb21563ca191afU, 0x3c8e8ab13ccbded0U, 0x3c2278a13d0b603aU, 0x3cb9d0563b5e7832U,
  0xbbd301dd3c7caacbU, 0x3d0c605e3c7dc523U, 0x3be7a62b3cfd870fU, 0x3cc1f170bc05b324U,
  0x3d0de7203c104d01U, 0xbc36eb3c3a6220f2U, 0xbc741c0e3b879555U, 0xbac61b65bc88d035U,
  0x3d167df6bc48abf5U, 0xbc9403983cf0a900U, 0x3c8d5fbe3d101fb5U, 0x3cf3cdb8bc83caa1U,
  0x3cdc503f3cb3d891U, 0x3c9184493d252f58U, 0xbbb2cacfbbb1caeeU, 0x3c01f6d23cd0e5d9U,
  0xbba2cb77bc819b97U, 0x3cdf958cbc762135U, 0xbc2869bf3d07e9adU, 0xbb5de4db3bee40fcU,
  0x3d0862ebbaa22184U, 0x3c3a6edb3c81baebU, 0xbba6a9f63d07f7e7U, 0x3d09f2723cd94ddaU,
  0xbc093d88bc8cd6d8U, 0x3cd32929bcaf3946U, 0x3d020d9b3cf7b128U, 0xbb8296a63cd4bd0fU,
  0x3d0136b63cf2e7a5U, 0xbca82f6a3cd5061fU, 0x3ac9dc33bb800e68U, 0xbc52e532baf98562U,
  0x3ae59a0c3c144899U, 0x3c916a543c2169c6U, 0x3cf64c42bcad9947U, 0x3c1555493bccf900U,
  0x3c90dae33d21880fU, 0x3d1d2a473c3c74b1U, 0x3d014e213ce1d7bcU, 0x3c9bfae0bb13a2edU,
  0x3c5aa8213cdccca3U, 0x3cfebe9a3d2250abU, 0xbc6d56cc3a5c1f5fU, 0xbca59bd33d015759U,
  0x3b1f4f693cf5b1abU, 0x3c45e9eebaacf4ebU, 0x3c21c1823cf57461U, 0xbbae67e23c96c3adU,
  0x3d12a8463c02a713U, 0x3d07cd843d19f9c5U, 0x3c768499bc52642aU, 0xbc96f35ebb3b5568U,
  0x3a6c72a03d11d820U, 0x3cee86d2bc614d52U, 0x3d0431a13d115a7fU, 0xbca2017fbc2c5aeeU,
  0xbcab018b3cc2baeeU, 0x3cf54a703cd3c387U, 0x3be50f093d0b5ea5U, 0xbc73567c3c772dbeU,
  0xbc65e511bc09fa83U, 0x3cd315543b0ac8b2U, 0xbc6a5e7a3ca56364U, 0x3cd61cf93b108545U,
  0xbc2a7eabbc92afd8U, 0x3c7432e33cc09e2eU, 0xbb152977bc8da7d2U, 0xbbee30a53c08cf2eU,
  0x3cfb28efbcc7c50dU, 0x3c92c49abc2d5905U, 0x3d15b6d43c97e7bcU, 0xbc9de6013ccaf0fdU,
  0xbc1970b1baa23f8eU, 0x3cfba9c63a1e3470U, 0xbc09b793bbe6c9a3U, 0x3c13359c3ceeb9beU,
  0x3cf864d53c0df946U, 0xbc53b90bbc43ac9dU, 0x3cb315933d029af4U, 0x3ae7ee883b585b76U,
  0x3cb51bcfbc02d32dU, 0x3be42d3e3c9ba9cdU, 0xbc73d0703d0dcb0aU, 0x3c7317ed3c7d6fc0U,
  0x3d05899a3cd3e2adU, 0xbc20147e3cd3d32cU, 0xb9ab8d033c3df00cU, 0xbb0ae47dbcb0f916U,
  0x3c29f748bc86146aU, 0xbc8e18683d102b91U, 0x3ca03408bc41eafeU, 0x3cb76d07bc743782U,
  0x3bfea56d3858808eU, 0x3c9d863c3b875b58U, 0xbbdff9a8bcb1d99cU, 0x3c9040633bb2ba2bU,
  0x3bd69c993bbe41feU, 0x3d03cdf03bf266e2U, 0xbb6035933a40ddc0U, 0x3c8c7fbd3b3047d8U,
  0x3c07a7553cd178d5U, 0x3d00ad333d05fcf8U, 0x3cccbda53c3b1c52U, 0xbc11c8d63c99f6c8U,
  0x3cb630e13cac161bU, 0x3d011e773cdd993fU, 0xbcbb6f363c4640a8U, 0x3c579e4e3d07d305U,
  0xbb712d773c3ea5a2U, 0x3cafcb243bcfdd8dU, 0xbab12e083c665901U, 0xbcb2980a3b63bcf2U,
  0x3d0fe5863c9a4896U, 0xbc8cc22abc886e6bU, 0x3b68bdac3c91711fU, 0x3bfe198fbc2e2b71U,
  0x3b9547d1bc720c11U, 0xbb77ba0ebb983937U, 0x3d058132bb424323U, 0x3cf4d69ebc99e0a9U,
  0x3cf7bef53cf6cb26U, 0x3c043e97bbaaea2eU, 0xbcbb01893cc2d8aaU, 0xbca64c2fbcbddf59U,
  0x3caabf7fbce0f43fU, 0x3cc17758bcb10251U, 0x3cfe94813c5c3589U, 0x3c87762a3c0e337dU,
